{
  "version": "1.0",
  "truncation": null,
  "padding": null,
  "added_tokens": [
    {
      "id": 0,
      "content": "<pad>",
      "single_word": false,
      "lstrip": false,
      "rstrip": false,
      "normalized": false,
      "special": true
    },
    {
      "id": 1,
      "content": "<unk>",
      "single_word": false,
      "lstrip": false,
      "rstrip": false,
      "normalized": false,
      "special": true
    },
    {
      "id": 2,
      "content": "<bos>",
      "single_word": false,
      "lstrip": false,
      "rstrip": false,
      "normalized": false,
      "special": true
    },
    {
      "id": 3,
      "content": "<eos>",
      "single_word": false,
      "lstrip": false,
      "rstrip": false,
      "normalized": false,
      "special": true
    }
  ],
  "normalizer": null,
  "pre_tokenizer": {
    "type": "Sequence",
    "pretokenizers": [
      {
        "type": "Split",
        "pattern": {
          "String": "\\d|\\p{N}| ?[^\\s\\p{L}\\p{N}]+[\\r\\n]*|[^\\\\r\\\\n\\\\p{L}\\\\p{N}]?\\p{L}+|\\s*[\\r\\n]+|\\s+(?!\\S)|\\s+"
        },
        "behavior": "Isolated",
        "invert": false
      },
      {
        "type": "ByteLevel",
        "add_prefix_space": false,
        "trim_offsets": true,
        "use_regex": true
      }
    ]
  },
  "post_processor": null,
  "decoder": {
    "type": "ByteLevel",
    "add_prefix_space": true,
    "trim_offsets": true,
    "use_regex": true
  },
  "model": {
    "type": "BPE",
    "dropout": null,
    "unk_token": "<unk>",
    "continuing_subword_prefix": null,
    "end_of_word_suffix": null,
    "fuse_unk": false,
    "byte_fallback": false,
    "ignore_merges": false,
    "vocab": {
      "<pad>": 0,
      "<unk>": 1,
      "<bos>": 2,
      "<eos>": 3,
      "!": 4,
      "\"": 5,
      "#": 6,
      "$": 7,
      "%": 8,
      "&": 9,
      "'": 10,
      "(": 11,
      ")": 12,
      "*": 13,
      "+": 14,
      ",": 15,
      "-": 16,
      ".": 17,
      "/": 18,
      "0": 19,
      "1": 20,
      "2": 21,
      "3": 22,
      "4": 23,
      "5": 24,
      "6": 25,
      "7": 26,
      "8": 27,
      "9": 28,
      ":": 29,
      ";": 30,
      "<": 31,
      "=": 32,
      ">": 33,
      "?": 34,
      "@": 35,
      "A": 36,
      "B": 37,
      "C": 38,
      "D": 39,
      "E": 40,
      "F": 41,
      "G": 42,
      "H": 43,
      "I": 44,
      "J": 45,
      "K": 46,
      "L": 47,
      "M": 48,
      "N": 49,
      "O": 50,
      "P": 51,
      "Q": 52,
      "R": 53,
      "S": 54,
      "T": 55,
      "U": 56,
      "V": 57,
      "W": 58,
      "X": 59,
      "Y": 60,
      "Z": 61,
      "[": 62,
      "\\": 63,
      "]": 64,
      "^": 65,
      "_": 66,
      "`": 67,
      "a": 68,
      "b": 69,
      "c": 70,
      "d": 71,
      "e": 72,
      "f": 73,
      "g": 74,
      "h": 75,
      "i": 76,
      "j": 77,
      "k": 78,
      "l": 79,
      "m": 80,
      "n": 81,
      "o": 82,
      "p": 83,
      "q": 84,
      "r": 85,
      "s": 86,
      "t": 87,
      "u": 88,
      "v": 89,
      "w": 90,
      "x": 91,
      "y": 92,
      "z": 93,
      "{": 94,
      "|": 95,
      "}": 96,
      "~": 97,
      "¡": 98,
      "¢": 99,
      "£": 100,
      "¤": 101,
      "¥": 102,
      "¦": 103,
      "§": 104,
      "¨": 105,
      "©": 106,
      "ª": 107,
      "«": 108,
      "¬": 109,
      "®": 110,
      "¯": 111,
      "°": 112,
      "±": 113,
      "²": 114,
      "³": 115,
      "´": 116,
      "µ": 117,
      "¶": 118,
      "·": 119,
      "¸": 120,
      "¹": 121,
      "º": 122,
      "»": 123,
      "¼": 124,
      "½": 125,
      "¾": 126,
      "¿": 127,
      "À": 128,
      "Á": 129,
      "Â": 130,
      "Ã": 131,
      "Ä": 132,
      "Å": 133,
      "Æ": 134,
      "Ç": 135,
      "È": 136,
      "É": 137,
      "Ê": 138,
      "Ë": 139,
      "Ì": 140,
      "Í": 141,
      "Î": 142,
      "Ï": 143,
      "Ð": 144,
      "Ñ": 145,
      "Ò": 146,
      "Ó": 147,
      "Ô": 148,
      "Õ": 149,
      "Ö": 150,
      "×": 151,
      "Ø": 152,
      "Ù": 153,
      "Ú": 154,
      "Û": 155,
      "Ü": 156,
      "Ý": 157,
      "Þ": 158,
      "ß": 159,
      "à": 160,
      "á": 161,
      "â": 162,
      "ã": 163,
      "ä": 164,
      "å": 165,
      "æ": 166,
      "ç": 167,
      "è": 168,
      "é": 169,
      "ê": 170,
      "ë": 171,
      "ì": 172,
      "í": 173,
      "î": 174,
      "ï": 175,
      "ð": 176,
      "ñ": 177,
      "ò": 178,
      "ó": 179,
      "ô": 180,
      "õ": 181,
      "ö": 182,
      "÷": 183,
      "ø": 184,
      "ù": 185,
      "ú": 186,
      "û": 187,
      "ü": 188,
      "ý": 189,
      "þ": 190,
      "ÿ": 191,
      "Ā": 192,
      "ā": 193,
      "Ă": 194,
      "ă": 195,
      "Ą": 196,
      "ą": 197,
      "Ć": 198,
      "ć": 199,
      "Ĉ": 200,
      "ĉ": 201,
      "Ċ": 202,
      "ċ": 203,
      "Č": 204,
      "č": 205,
      "Ď": 206,
      "ď": 207,
      "Đ": 208,
      "đ": 209,
      "Ē": 210,
      "ē": 211,
      "Ĕ": 212,
      "ĕ": 213,
      "Ė": 214,
      "ė": 215,
      "Ę": 216,
      "ę": 217,
      "Ě": 218,
      "ě": 219,
      "Ĝ": 220,
      "ĝ": 221,
      "Ğ": 222,
      "ğ": 223,
      "Ġ": 224,
      "ġ": 225,
      "Ģ": 226,
      "ģ": 227,
      "Ĥ": 228,
      "ĥ": 229,
      "Ħ": 230,
      "ħ": 231,
      "Ĩ": 232,
      "ĩ": 233,
      "Ī": 234,
      "ī": 235,
      "Ĭ": 236,
      "ĭ": 237,
      "Į": 238,
      "į": 239,
      "İ": 240,
      "ı": 241,
      "Ĳ": 242,
      "ĳ": 243,
      "Ĵ": 244,
      "ĵ": 245,
      "Ķ": 246,
      "ķ": 247,
      "ĸ": 248,
      "Ĺ": 249,
      "ĺ": 250,
      "Ļ": 251,
      "ļ": 252,
      "Ľ": 253,
      "ľ": 254,
      "Ŀ": 255,
      "ŀ": 256,
      "Ł": 257,
      "ł": 258,
      "Ń": 259,
      "Ä±": 260,
      "ar": 261,
      "er": 262,
      "Ã¼": 263,
      "an": 264,
      "in": 265,
      "ÅŁ": 266,
      "Ġb": 267,
      "en": 268,
      "Ä±n": 269,
      "il": 270,
      "ir": 271,
      "ÄŁ": 272,
      "Ã§": 273,
      "Ġk": 274,
      "Ġd": 275,
      "Ġs": 276,
      "al": 277,
      "Ġy": 278,
      "ak": 279,
      "lar": 280,
      "el": 281,
      "Ġg": 282,
      "ek": 283,
      "Ã¶": 284,
      "Ġo": 285,
      "Ġv": 286,
      "et": 287,
      "ay": 288,
      "Ġt": 289,
      "Ġi": 290,
      "as": 291,
      "am": 292,
      "un": 293,
      "ler": 294,
      "de": 295,
      "or": 296,
      "at": 297,
      "da": 298,
      "es": 299,
      "Ġh": 300,
      "iy": 301,
      "Ġve": 302,
      "iz": 303,
      "on": 304,
      "em": 305,
      "im": 306,
      "ik": 307,
      "Ä±r": 308,
      "Ġbir": 309,
      "Ġm": 310,
      "ur": 311,
      "aÅŁ": 312,
      "Ġol": 313,
      "ĠB": 314,
      "ed": 315,
      "ul": 316,
      "Ä±l": 317,
      "ad": 318,
      "Ã¼n": 319,
      "ĠÃ§": 320,
      "Ä±k": 321,
      "is": 322,
      "ĠA": 323,
      "Ã¼r": 324,
      "Ä°": 325,
      "az": 326,
      "Ä±m": 327,
      "ap": 328,
      "le": 329,
      "ah": 330,
      "ab": 331,
      "it": 332,
      "ĠK": 333,
      "iÅŁ": 334,
      "ĠS": 335,
      "um": 336,
      "Ä±ÅŁ": 337,
      "ey": 338,
      "Ä±z": 339,
      "Ġp": 340,
      "ĠÃ¶": 341,
      "Ġil": 342,
      "Ġde": 343,
      "ĠT": 344,
      "aÄŁ": 345,
      "li": 346,
      "ol": 347,
      "ĠM": 348,
      "ĠiÃ§": 349,
      "Ġf": 350,
      "ac": 351,
      "lan": 352,
      "larÄ±n": 353,
      "Ġal": 354,
      "st": 355,
      "ok": 356,
      "lÄ±": 357,
      "ĠgÃ¶": 358,
      "Ã¼z": 359,
      "dan": 360,
      "Ä±nda": 361,
      "ini": 362,
      "ĠÅŁ": 363,
      "Ġn": 364,
      "ĠD": 365,
      "Ġyap": 366,
      "ĠiÃ§in": 367,
      "di": 368,
      "ev": 369,
      "asÄ±": 370,
      "Ġar": 371,
      "larÄ±": 372,
      "ec": 373,
      "ine": 374,
      "du": 375,
      "Ġ2": 376,
      "la": 377,
      "ĠE": 378,
      "ĠH": 379,
      "ĠÄ°": 380,
      "esi": 381,
      "Ġ1": 382,
      "ĠÃ": 383,
      "ĠG": 384,
      "Ã¼k": 385,
      "inde": 386,
      "den": 387,
      "uy": 388,
      "uz": 389,
      "ĠY": 390,
      "leri": 391,
      "aÃ§": 392,
      "Ġbu": 393,
      "Ä±ÄŁ": 394,
      "eler": 395,
      "iler": 396,
      "Ä±y": 397,
      "alar": 398,
      "ti": 399,
      "Ã¼m": 400,
      "âĢ": 401,
      "Ġda": 402,
      "af": 403,
      "iyor": 404,
      "Ä±nÄ±": 405,
      "Ġile": 406,
      "mak": 407,
      "Ġz": 408,
      "ya": 409,
      "eÄŁ": 410,
      "ĠP": 411,
      "ilir": 412,
      "Ġet": 413,
      "Ġr": 414,
      "Ġed": 415,
      "Ä±s": 416,
      "ut": 417,
      "ĠgÃ¶r": 418,
      "inin": 419,
      "ĠbaÅŁ": 420,
      "Ã¼l": 421,
      "dir": 422,
      "lik": 423,
      "ma": 424,
      "uÅŁ": 425,
      "oÄŁ": 426,
      "av": 427,
      "eb": 428,
      "eÃ§": 429,
      "Ġan": 430,
      "iniz": 431,
      "lam": 432,
      "iye": 433,
      "us": 434,
      "Ġger": 435,
      "Ġc": 436,
      "Ġver": 437,
      "tir": 438,
      "Ã¶n": 439,
      "Ġkar": 440,
      "ĠÃ¶n": 441,
      "ez": 442,
      "Ġgel": 443,
      "Ġson": 444,
      "Ä±na": 445,
      "mek": 446,
      "dÄ±r": 447,
      "ĠO": 448,
      "..": 449,
      "uk": 450,
      "Ã¼y": 451,
      "'d": 452,
      "larak": 453,
      "Ã¼ÅŁ": 454,
      "Ġbil": 455,
      "ip": 456,
      "len": 457,
      "Ġoldu": 458,
      "ĠiÅŁ": 459,
      "ĠF": 460,
      "Ġ20": 461,
      "Ġolarak": 462,
      "eÅŁ": 463,
      "om": 464,
      "Ġen": 465,
      "Ġkon": 466,
      "lem": 467,
      "ce": 468,
      "Ġin": 469,
      "ĠC": 470,
      "ib": 471,
      "tÄ±r": 472,
      "ro": 473,
      "iÄŁ": 474,
      "Ġay": 475,
      "ta": 476,
      "Åŀ": 477,
      "Ġtar": 478,
      "ĠdeÄŁ": 479,
      "acak": 480,
      "Ä±ndan": 481,
      "te": 482,
      "Ġ(": 483,
      "aya": 484,
      "lÄ±k": 485,
      "Ġ\"": 486,
      "anÄ±": 487,
      "Ġkul": 488,
      "Ġbul": 489,
      "ilm": 490,
      "Ġolm": 491,
      "aha": 492,
      "ĠÃ§ok": 493,
      "Ġolan": 494,
      "Ä±yor": 495,
      "Ã¼rk": 496,
      "Ġyer": 497,
      "dÄ±": 498,
      "Ġkullan": 499,
      "op": 500,
      "se": 501,
      "ayÄ±": 502,
      "ĠaÃ§": 503,
      "unu": 504,
      "man": 505,
      "imiz": 506,
      "ĠBu": 507,
      "Ä±ÄŁÄ±": 508,
      "Ġor": 509,
      "tan": 510,
      "Ã¶r": 511,
      "lu": 512,
      "yon": 513,
      "eni": 514,
      "Ä±nÄ±n": 515,
      "ih": 516,
      "ĠN": 517,
      "ede": 518,
      "tÄ±": 519,
      "Ġkal": 520,
      "ĠÃĩ": 521,
      "Ġist": 522,
      "ĠgÃ¼n": 523,
      "ic": 524,
      "Ġdaha": 525,
      "ĠsÃ¼r": 526,
      "Ġad": 527,
      "ibi": 528,
      "Ã¶y": 529,
      "ĠyÄ±l": 530,
      "Ġkad": 531,
      "ark": 532,
      "ĠolduÄŁ": 533,
      "alÄ±ÅŁ": 534,
      "ÄŁi": 535,
      "ĠR": 536,
      "Ġkur": 537,
      "aki": 538,
      "Ġher": 539,
      "Ġuy": 540,
      "isi": 541,
      "me": 542,
      "aman": 543,
      "ecek": 544,
      "Ġbel": 545,
      "ada": 546,
      "Ġvar": 547,
      "inden": 548,
      "cÄ±": 549,
      "abilir": 550,
      "masÄ±": 551,
      "eki": 552,
      "ra": 553,
      "ĠÃ§alÄ±ÅŁ": 554,
      "ter": 555,
      "os": 556,
      "ĠgeÃ§": 557,
      "ca": 558,
      "ĠÃ§Ä±k": 559,
      "mÄ±ÅŁ": 560,
      "00": 561,
      "Ä±mÄ±z": 562,
      "ĠyaÅŁ": 563,
      "san": 564,
      "eden": 565,
      "Ġ-": 566,
      "Ġyar": 567,
      "ki": 568,
      "ĠÃĸ": 569,
      "ĠV": 570,
      "Ġgerek": 571,
      "Ġgibi": 572,
      "ilen": 573,
      "eh": 574,
      "ĠÃ¼z": 575,
      "alÄ±": 576,
      "ili": 577,
      "Ä±nÄ±z": 578,
      "ĠsaÄŁ": 579,
      "ĠTÃ¼rk": 580,
      "âĢĻ": 581,
      "ayan": 582,
      "Ġ3": 583,
      "ist": 584,
      "leÅŁ": 585,
      "ep": 586,
      "ama": 587,
      "Ġbulun": 588,
      "met": 589,
      "Ġek": 590,
      "ĠÃ¼zer": 591,
      "asÄ±nda": 592,
      "ĠyapÄ±l": 593,
      "Ġken": 594,
      "laÅŁ": 595,
      "ken": 596,
      "ĠÅŀ": 597,
      "ans": 598,
      "Ġel": 599,
      "Ã¶z": 600,
      "let": 601,
      "ÄŁr": 602,
      "eli": 603,
      "Ġ201": 604,
      "ĠÃ¶z": 605,
      "iyet": 606,
      "Ã¼t": 607,
      "eye": 608,
      "ru": 609,
      "gi": 610,
      "Ġoy": 611,
      "id": 612,
      "ers": 613,
      "ĠyÃ¶n": 614,
      "unda": 615,
      "Ġzaman": 616,
      "lerin": 617,
      "iyle": 618,
      "Ġpar": 619,
      "oy": 620,
      "Ġsor": 621,
      "ot": 622,
      "ĠL": 623,
      "edi": 624,
      "ade": 625,
      "edir": 626,
      "lÃ¼": 627,
      "tr": 628,
      "sa": 629,
      "miÅŁ": 630,
      "Ġon": 631,
      "tur": 632,
      "20": 633,
      "Ġkadar": 634,
      "Ġl": 635,
      "Ã¼c": 636,
      "ĠdÃ¼ÅŁ": 637,
      "ĠAn": 638,
      "lÄ±ÄŁ": 639,
      "Ġdur": 640,
      "if": 641,
      "aber": 642,
      "ef": 643,
      "aÅŁk": 644,
      "Ġtek": 645,
      "ĠkarÅŁ": 646,
      "Ġdev": 647,
      "Ã¼yÃ¼k": 648,
      "lara": 649,
      "arak": 650,
      "est": 651,
      "Ġpro": 652,
      "Ġyaz": 653,
      "daki": 654,
      "ĠU": 655,
      "Ġtaraf": 656,
      "Ã§ek": 657,
      "Ã¶l": 658,
      "ĠÅŁek": 659,
      "Ġsah": 660,
      "larÄ±nÄ±": 661,
      "Ġuyg": 662,
      "ĠÃ¼r": 663,
      "Ġak": 664,
      "acaÄŁ": 665,
      "Ġhal": 666,
      "cak": 667,
      "art": 668,
      "unun": 669,
      "yi": 670,
      "siniz": 671,
      "eri": 672,
      "Ãľ": 673,
      "Ġtop": 674,
      "oc": 675,
      "Ġsay": 676,
      "Ġkat": 677,
      "ĠdoÄŁ": 678,
      "men": 679,
      "...": 680,
      "eceÄŁ": 681,
      "imi": 682,
      "Ġbelir": 683,
      "Ġkay": 684,
      "nin": 685,
      "tad": 686,
      "ĠdÃ¶n": 687,
      "Ġkap": 688,
      "malar": 689,
      "Ã¢": 690,
      "Ġise": 691,
      "Ã¼Ã§": 692,
      "abil": 693,
      "ley": 694,
      "ĠâĢ": 695,
      "Ġyan": 696,
      "Ġsonra": 697,
      "lerini": 698,
      "Ġhak": 699,
      "iyat": 700,
      "lat": 701,
      "orum": 702,
      "Ġyeni": 703,
      "eleri": 704,
      "Ã¼s": 705,
      "erk": 706,
      "erek": 707,
      "ĠAr": 708,
      "ĠkiÅŁ": 709,
      "arÄ±": 710,
      "lad": 711,
      "ten": 712,
      "Ġ5": 713,
      "mas": 714,
      "Ġveya": 715,
      "Ġyak": 716,
      "elik": 717,
      "Ġalan": 718,
      "Ġhay": 719,
      "ĠÃľ": 720,
      "Ġ4": 721,
      "Ġtak": 722,
      "ĠÃ¶zel": 723,
      "Ġat": 724,
      "lay": 725,
      "ĠaÃ§Ä±k": 726,
      "Ä±sÄ±": 727,
      "esinde": 728,
      "deki": 729,
      "sel": 730,
      "Ġyol": 731,
      "dÃ¼r": 732,
      "Ġgir": 733,
      "ram": 734,
      "Ġev": 735,
      "Ġsiz": 736,
      "ĠgerÃ§ek": 737,
      "cu": 738,
      "uyor": 739,
      "larda": 740,
      "ĠbÃ¼yÃ¼k": 741,
      "kin": 742,
      "ildi": 743,
      "ster": 744,
      "iv": 745,
      "ĠÃ¶nem": 746,
      "ĠyÃ¼k": 747,
      "tadÄ±r": 748,
      "iÃ§": 749,
      "Ġne": 750,
      "uÃ§": 751,
      "Ġort": 752,
      "tedir": 753,
      "ĠAl": 754,
      "ĠÃ¶ÄŁr": 755,
      "Ġuz": 756,
      "izmet": 757,
      "Ġgen": 758,
      "ĠdÃ¼z": 759,
      "Ġsev": 760,
      "asyon": 761,
      "ĠTÃ¼rkiye": 762,
      "ĠyÃ¼z": 763,
      "lere": 764,
      "Ġden": 765,
      "od": 766,
      "ĠÅŁekil": 767,
      "Ġsit": 768,
      "ebilir": 769,
      "Ġilg": 770,
      "atÄ±r": 771,
      "Ġdurum": 772,
      "Ä±lan": 773,
      "Ġben": 774,
      "Ġkaz": 775,
      "una": 776,
      "aret": 777,
      "ĠseÃ§": 778,
      "ĠtarafÄ±ndan": 779,
      "ĠdeÄŁil": 780,
      "ven": 781,
      "iÅŁtir": 782,
      "ediÄŁ": 783,
      "Ġtem": 784,
      "Ġbak": 785,
      "aat": 786,
      "ĠBir": 787,
      "Ġhem": 788,
      "Ġinsan": 789,
      "ĠBaÅŁk": 790,
      "Ġes": 791,
      "Ġfark": 792,
      "ht": 793,
      "Ġiyi": 794,
      "Ġilk": 795,
      "Ä±yla": 796,
      "ĠbaÄŁ": 797,
      "ER": 798,
      "ÄŁu": 799,
      "ĠgÃ¶ster": 800,
      "Ġkend": 801,
      "dÄ±m": 802,
      "ĠI": 803,
      "ci": 804,
      "mektedir": 805,
      "oz": 806,
      "uÅŁtur": 807,
      "ĠÅŁekilde": 808,
      "ĠsÃ¶y": 809,
      "Ġbiz": 810,
      "AR": 811,
      "etim": 812,
      "aÄŁÄ±": 813,
      "ĠgÃ¶re": 814,
      "asÄ±l": 815,
      "anÄ±n": 816,
      "ĠbÃ¶l": 817,
      "por": 818,
      "mesi": 819,
      "sun": 820,
      "Ġok": 821,
      "Ġneden": 822,
      "Ġhar": 823,
      "Ġ'": 824,
      "ileri": 825,
      "Ġtam": 826,
      "ast": 827,
      "Ġhizmet": 828,
      "ĠolduÄŁu": 829,
      "maya": 830,
      "ara": 831,
      "alÄ±k": 832,
      "eyi": 833,
      "ĠeÄŁ": 834,
      "adan": 835,
      "larÄ±nÄ±n": 836,
      "ob": 837,
      "Ã¼ven": 838,
      "ĠÃ§ek": 839,
      "AN": 840,
      "Ãĩ": 841,
      "Ġuygul": 842,
      "etir": 843,
      "ĠtÃ¼m": 844,
      "Ġalt": 845,
      "Ġa": 846,
      "cel": 847,
      "maktadÄ±r": 848,
      "han": 849,
      "Ä±mÄ±": 850,
      "rÄ±": 851,
      "ret": 852,
      "dur": 853,
      "Ġsat": 854,
      "ayÄ±n": 855,
      "bir": 856,
      "Ġbilg": 857,
      "Ġul": 858,
      "Ä±lÄ±": 859,
      "ĠiÃ§er": 860,
      "Ġart": 861,
      "Ġiz": 862,
      "Ġmil": 863,
      "enin": 864,
      "istem": 865,
      "Ãĸ": 866,
      "liÄŁi": 867,
      "Ġgetir": 868,
      "Ġyok": 869,
      "Ġsahip": 870,
      "iÄŁer": 871,
      "ran": 872,
      "nÄ±": 873,
      "Ġser": 874,
      "re": 875,
      "Ġyet": 876,
      "ĠÃ¼l": 877,
      "der": 878,
      "Ã¼st": 879,
      "ĠEr": 880,
      "alarÄ±": 881,
      "Ġkazan": 882,
      "leÅŁtir": 883,
      "ĠZ": 884,
      "nÄ±n": 885,
      "Ġdevam": 886,
      "Ġtarih": 887,
      "Ġki": 888,
      "ĠiÅŁlem": 889,
      "bet": 890,
      "ĠAy": 891,
      "up": 892,
      "Ġder": 893,
      "Ġfaz": 894,
      "siz": 895,
      "larÄ±na": 896,
      "olo": 897,
      "raf": 898,
      "ĠÃ¶nemli": 899,
      "ĠalÄ±n": 900,
      "dÄ±ÄŁ": 901,
      "ĠsÄ±r": 902,
      "tar": 903,
      "Ġ6": 904,
      "lÄ±ÄŁÄ±": 905,
      "oÅŁ": 906,
      "ĠdeÄŁer": 907,
      "emek": 908,
      "Ġilgili": 909,
      "Ġsun": 910,
      "Ġoyun": 911,
      "mam": 912,
      "Ġsan": 913,
      "ĠgÃ¶z": 914,
      "Ġ0": 915,
      "usu": 916,
      "Ġetti": 917,
      "dÄ±ÄŁÄ±": 918,
      "ĠdÃ¼n": 919,
      "Ä±cÄ±": 920,
      "ĠÃ¶ÄŁren": 921,
      "Ġtut": 922,
      "itim": 923,
      "esine": 924,
      "lerde": 925,
      "iyas": 926,
      "ĠolduÄŁunu": 927,
      "eniz": 928,
      "Ġya": 929,
      "Ġas": 930,
      "Ġaz": 931,
      "ub": 932,
      "Ġdol": 933,
      "Ġam": 934,
      "Ġter": 935,
      "iÅŁim": 936,
      "azÄ±": 937,
      "ĠsÃ¶z": 938,
      "sek": 939,
      "Ġbin": 940,
      "Ġede": 941,
      "ĠÃ¶nce": 942,
      "ĠÃ¼lk": 943,
      "iyon": 944,
      "liÄŁ": 945,
      "ĠÅŁey": 946,
      "ocuk": 947,
      "ĠaÅŁ": 948,
      "lendir": 949,
      "ĠÄ°n": 950,
      "ĠBel": 951,
      "Ġkol": 952,
      "âĢ¦": 953,
      "lerinin": 954,
      "Ġ10": 955,
      "ilik": 956,
      "ĠdÃ¼ÅŁÃ¼n": 957,
      "Bu": 958,
      "Ġduy": 959,
      "Ġbah": 960,
      "oloj": 961,
      "ika": 962,
      "emiz": 963,
      "erkez": 964,
      "ĠKur": 965,
      "orm": 966,
      "ig": 967,
      "esini": 968,
      "Ã¼nde": 969,
      "ekt": 970,
      "bul": 971,
      "ĠdÃ¼zen": 972,
      "Ã¼zel": 973,
      "dÃ¼": 974,
      "Ġ7": 975,
      "ĠkÄ±s": 976,
      "ĠÄ°l": 977,
      "ĠÃ¼rÃ¼n": 978,
      "'t": 979,
      "likle": 980,
      "alan": 981,
      "ehir": 982,
      "ket": 983,
      "Ã§e": 984,
      "abilirsiniz": 985,
      "Ġbirlik": 986,
      "lerine": 987,
      "ĠaÄŁ": 988,
      "Ġyapt": 989,
      "tÃ¼r": 990,
      "Ġetk": 991,
      "diÄŁ": 992,
      "Ġ19": 993,
      "Ġsistem": 994,
      "Ġhakk": 995,
      "sÄ±z": 996,
      "ĠbaÅŁk": 997,
      "Ġmu": 998,
      "ĠgÃ¼ven": 999,
      "ulu": 1000,
      "azÄ±r": 1001,
      "ĠarasÄ±nda": 1002,
      "lama": 1003,
      "Ġama": 1004,
      "ĠÃĸz": 1005,
      "Ġzor": 1006,
      "Ġhayat": 1007,
      "Ä±ndaki": 1008,
      "Ġfiyat": 1009,
      "larÄ±nda": 1010,
      "Ã¶yle": 1011,
      "ide": 1012,
      "Ġdest": 1013,
      "Ġis": 1014,
      "Ġfazla": 1015,
      "gÃ¼n": 1016,
      "yal": 1017,
      "Ġark": 1018,
      "Ġbek": 1019,
      "Ġtan": 1020,
      "ĠyatÄ±r": 1021,
      "asar": 1022,
      "ĠtaÅŁ": 1023,
      "stan": 1024,
      "Ä±p": 1025,
      "esin": 1026,
      "ye": 1027,
      "og": 1028,
      "Ġolur": 1029,
      "Ã§a": 1030,
      "iyorum": 1031,
      "lardan": 1032,
      "si": 1033,
      "Ã¼yor": 1034,
      "tu": 1035,
      "ĠiÃ§inde": 1036,
      "diÄŁi": 1037,
      "tik": 1038,
      "ĠkonuÅŁ": 1039,
      "ĠdiÄŁer": 1040,
      "ĠAk": 1041,
      "gram": 1042,
      "Ġtes": 1043,
      "Ġiki": 1044,
      "tÃ¼": 1045,
      "eyen": 1046,
      "Ġolacak": 1047,
      "Ġim": 1048,
      "ĠdÄ±ÅŁ": 1049,
      "adece": 1050,
      "dik": 1051,
      "Ġbas": 1052,
      "ĠÃ¶l": 1053,
      "Ġmes": 1054,
      "ĠulaÅŁ": 1055,
      "Ã¼p": 1056,
      "Ġkr": 1057,
      "ne": 1058,
      "ici": 1059,
      "Ġbirlikte": 1060,
      "ĠhazÄ±r": 1061,
      "acÄ±": 1062,
      "rup": 1063,
      "Ġ8": 1064,
      "Ġgelen": 1065,
      "ilmesi": 1066,
      "Ġif": 1067,
      "ĠBak": 1068,
      "Ġolmak": 1069,
      "ĠÄ°ÅŁ": 1070,
      "maz": 1071,
      "ank": 1072,
      "stanbul": 1073,
      "ĠGen": 1074,
      "ilerin": 1075,
      "eÄŁi": 1076,
      "ĠhiÃ§": 1077,
      "ĠKar": 1078,
      "Ġsaat": 1079,
      "ĠaynÄ±": 1080,
      "meye": 1081,
      "ĠdÃ¶nem": 1082,
      "ĠnasÄ±l": 1083,
      "Ġdik": 1084,
      "net": 1085,
      "ing": 1086,
      "ort": 1087,
      "Ġot": 1088,
      "ĠGÃ¼n": 1089,
      "ĠyapÄ±lan": 1090,
      "Ġ:": 1091,
      "Ä±lÄ±k": 1092,
      "ov": 1093,
      "ĠfarklÄ±": 1094,
      "ladÄ±": 1095,
      "Ġkab": 1096,
      "ĠBaÅŁkanÄ±": 1097,
      "ĠW": 1098,
      "ĠgÃ¶rÃ¼n": 1099,
      "kat": 1100,
      "ĠgÃ¼zel": 1101,
      "Ġeden": 1102,
      "lah": 1103,
      "ĠâĢĵ": 1104,
      "larla": 1105,
      "ĠEn": 1106,
      "eg": 1107,
      "Ġkor": 1108,
      "Ġ|": 1109,
      "201": 1110,
      "iyoruz": 1111,
      "Ġkonu": 1112,
      "na": 1113,
      "leme": 1114,
      "irket": 1115,
      "Ġhaber": 1116,
      "Ġboy": 1117,
      "21": 1118,
      "dar": 1119,
      "larÄ±mÄ±z": 1120,
      "lerinde": 1121,
      "yla": 1122,
      "ĠeÅŁ": 1123,
      "Ġbur": 1124,
      "tiÄŁ": 1125,
      "Ġpara": 1126,
      "ĠkÃ¶": 1127,
      "Ġsal": 1128,
      "Ġkim": 1129,
      "Ġtamam": 1130,
      "Ġsen": 1131,
      "fa": 1132,
      "Ġdil": 1133,
      "anlÄ±": 1134,
      "ant": 1135,
      "ĠÃ¶r": 1136,
      "ĠyardÄ±m": 1137,
      "adaÅŁ": 1138,
      "ĠtÃ¼r": 1139,
      "luk": 1140,
      "Ġu": 1141,
      "asÄ±na": 1142,
      "Ġhaf": 1143,
      "ĠkarÅŁÄ±": 1144,
      "Ġhes": 1145,
      "Ä±zÄ±": 1146,
      "Ġmal": 1147,
      "ĠÃ¼st": 1148,
      "Ġkam": 1149,
      "ost": 1150,
      "Ġiht": 1151,
      "Ġer": 1152,
      "ĠyÃ¼ksek": 1153,
      "eket": 1154,
      "kÃ¼": 1155,
      "ĠÃ§ocuk": 1156,
      "ĠÃ¶nc": 1157,
      "nun": 1158,
      "Ġtekn": 1159,
      "Ġkurul": 1160,
      "inizi": 1161,
      "ĠÃ§Ä±kar": 1162,
      "ĠBeled": 1163,
      "ĠsÄ±k": 1164,
      "ĠbÃ¶lg": 1165,
      "ĠdoÄŁru": 1166,
      "EN": 1167,
      "ĠkullanÄ±l": 1168,
      "siyon": 1169,
      "isinde": 1170,
      ".\"": 1171,
      "Ġdiye": 1172,
      "eme": 1173,
      "Ġtel": 1174,
      "ĠdeÄŁiÅŁ": 1175,
      "aÅŁtÄ±r": 1176,
      "hur": 1177,
      "Ġdestek": 1178,
      "Ġkarar": 1179,
      "ĠyatÄ±rÄ±m": 1180,
      "Ã¼tÃ¼n": 1181,
      "ĠHaber": 1182,
      "ahat": 1183,
      "ĠoluÅŁtur": 1184,
      "ĠJ": 1185,
      "Ġsadece": 1186,
      "ĠiliÅŁ": 1187,
      "Ġkan": 1188,
      "unuz": 1189,
      "oÄŁlu": 1190,
      "Ã¼dÃ¼r": 1191,
      "Ġ9": 1192,
      "Ġanlam": 1193,
      "ĠgÃ¶rev": 1194,
      "aylaÅŁ": 1195,
      "Ä°N": 1196,
      "adÄ±ÄŁ": 1197,
      "ĠolmasÄ±": 1198,
      "ektÃ¶r": 1199,
      "uv": 1200,
      "Ã¼nÃ¼": 1201,
      "esinin": 1202,
      "Ġdedi": 1203,
      "anda": 1204,
      "Ġmak": 1205,
      "Ġkendi": 1206,
      "dÄ±k": 1207,
      "Ġdikkat": 1208,
      "ebil": 1209,
      "ĠEk": 1210,
      "Ġbelirt": 1211,
      "osyal": 1212,
      "Ġik": 1213,
      "ĠÃ¼y": 1214,
      "asÄ±nÄ±": 1215,
      "Ġhav": 1216,
      "ĠÄ°s": 1217,
      "mi": 1218,
      "usunda": 1219,
      "ĠCum": 1220,
      "ĠPro": 1221,
      "Ġ15": 1222,
      "com": 1223,
      "Ġem": 1224,
      "AL": 1225,
      "lÃ¼k": 1226,
      "Ġmod": 1227,
      "Ġbulunan": 1228,
      "ore": 1229,
      "azar": 1230,
      "end": 1231,
      "ivers": 1232,
      "Ġolduk": 1233,
      "ĠOr": 1234,
      "okt": 1235,
      "ÄŁÃ¼": 1236,
      "lerden": 1237,
      "Ġtab": 1238,
      "layan": 1239,
      "Ġdav": 1240,
      "ĠBil": 1241,
      "atÄ±": 1242,
      "adÄ±": 1243,
      "ĠSon": 1244,
      "ĠÄ°stanbul": 1245,
      "iversit": 1246,
      "ĠgÃ¶n": 1247,
      "Ġuygun": 1248,
      "Ã¼ne": 1249,
      "sam": 1250,
      "Ġgenel": 1251,
      "AK": 1252,
      "ĠhÄ±z": 1253,
      "ĠKon": 1254,
      "ĠAv": 1255,
      "ana": 1256,
      "ĠeÄŁitim": 1257,
      "Ġeder": 1258,
      "ĠkatÄ±l": 1259,
      "Ġoyn": 1260,
      "Ġetm": 1261,
      "ĠgerÃ§ekleÅŁtir": 1262,
      "ĠÃ§ev": 1263,
      "onom": 1264,
      "Ã§i": 1265,
      "rak": 1266,
      "ĠgÃ¼Ã§": 1267,
      "Ġmut": 1268,
      "lak": 1269,
      "ET": 1270,
      "gel": 1271,
      "Äŀ": 1272,
      "ĠEÄŁ": 1273,
      "Ġ#": 1274,
      "tal": 1275,
      "Ġw": 1276,
      "ĠarkadaÅŁ": 1277,
      "ĠÃ§alÄ±ÅŁmalar": 1278,
      "ge": 1279,
      "aj": 1280,
      "Ġkit": 1281,
      "rÄ±ca": 1282,
      "Ä±rak": 1283,
      "Ġsorun": 1284,
      "IN": 1285,
      "Ġmad": 1286,
      "mÄ±ÅŁtÄ±r": 1287,
      "Ġsav": 1288,
      "ĠkarÅŁÄ±l": 1289,
      "lanan": 1290,
      "ĠÃ¼zere": 1291,
      "ĠsÃ¶yl": 1292,
      "ĠhakkÄ±nda": 1293,
      "ece": 1294,
      "Ġbit": 1295,
      "Ġhat": 1296,
      "Ġproj": 1297,
      "Ġfir": 1298,
      "Ã§ok": 1299,
      "eti": 1300,
      "meler": 1301,
      "âĢĿ": 1302,
      "ĠÅŁirket": 1303,
      "Ġ/": 1304,
      "Ġgid": 1305,
      "res": 1306,
      "hal": 1307,
      "Ġsonr": 1308,
      "Ġbun": 1309,
      "enk": 1310,
      "bol": 1311,
      "Ġbiri": 1312,
      "ĠÃ¼ret": 1313,
      "ent": 1314,
      "kan": 1315,
      "ĠoluÅŁ": 1316,
      "nak": 1317,
      "lerinden": 1318,
      "ĠÃ§Ã¶z": 1319,
      "Ġbile": 1320,
      "10": 1321,
      "Ġihtiy": 1322,
      "ĠsÄ±n": 1323,
      "larÄ±ndan": 1324,
      "ĠbaÅŁar": 1325,
      "bar": 1326,
      "An": 1327,
      "lerimiz": 1328,
      "Ġhareket": 1329,
      "ĠbÄ±rak": 1330,
      "Ġedil": 1331,
      "ĠmÃ¼": 1332,
      "ĠyaÅŁam": 1333,
      "efon": 1334,
      "ĠbazÄ±": 1335,
      "sal": 1336,
      "duÄŁu": 1337,
      "ĠkaÃ§": 1338,
      "Ġuygulam": 1339,
      "lamak": 1340,
      "Ã¼mÃ¼z": 1341,
      "iÄŁi": 1342,
      "lerle": 1343,
      "ĠÃ¼zerinde": 1344,
      "ĠGenel": 1345,
      "Ġgit": 1346,
      "ri": 1347,
      "ĠyÃ¼r": 1348,
      "Ġetmek": 1349,
      "EL": 1350,
      "Ġtal": 1351,
      "eda": 1352,
      "ĠMu": 1353,
      "ĠgeÃ§ir": 1354,
      "Ġbahis": 1355,
      "Ġmev": 1356,
      "oh": 1357,
      "Ã¼ÅŁter": 1358,
      "ĠdÃ¼ny": 1359,
      "19": 1360,
      "muÅŁ": 1361,
      "gil": 1362,
      "ĠBaÅŁ": 1363,
      "Ġsu": 1364,
      "Ġhast": 1365,
      "Ã¼cret": 1366,
      "ĠteÅŁ": 1367,
      "lum": 1368,
      "Ġuzun": 1369,
      "min": 1370,
      "mayÄ±": 1371,
      "dÄ±ndan": 1372,
      "Ġanlat": 1373,
      "Ġediyor": 1374,
      "Ġortaya": 1375,
      "lenen": 1376,
      "may": 1377,
      "Ġ12": 1378,
      "ĠÃ¼cret": 1379,
      "Ġmerkez": 1380,
      "ternet": 1381,
      "Ġprogram": 1382,
      "ĠBur": 1383,
      "ĠÃ¼zerine": 1384,
      "edik": 1385,
      "kÄ±": 1386,
      "gan": 1387,
      "Ġkolay": 1388,
      "Ġfa": 1389,
      "Ġmi": 1390,
      "Ã®": 1391,
      "ucu": 1392,
      "Ġ,": 1393,
      "atik": 1394,
      "ver": 1395,
      "ĠpaylaÅŁ": 1396,
      "ĠyÃ¶net": 1397,
      "Ġseb": 1398,
      "ĠaÃ§Ä±klam": 1399,
      "Ġplan": 1400,
      "olu": 1401,
      "Ġtasar": 1402,
      "sanÄ±z": 1403,
      "amaz": 1404,
      "eÅŁit": 1405,
      "ĠgÃ¶rÃ¼ÅŁ": 1406,
      "umuz": 1407,
      "ĠMil": 1408,
      "he": 1409,
      "Ġhas": 1410,
      "Ġ200": 1411,
      "Ġifade": 1412,
      "Ä°L": 1413,
      "urt": 1414,
      "ĠgeliÅŁ": 1415,
      "rar": 1416,
      "ĠkadÄ±n": 1417,
      "sin": 1418,
      "obil": 1419,
      "masÄ±nÄ±": 1420,
      "elerin": 1421,
      "adÄ±ÄŁÄ±": 1422,
      "Ã¼nkÃ¼": 1423,
      "gul": 1424,
      "Ġop": 1425,
      "elim": 1426,
      "Ġpiyas": 1427,
      "Bir": 1428,
      "Ġpol": 1429,
      "ĠTL": 1430,
      "edef": 1431,
      "ayÄ±s": 1432,
      "Ġancak": 1433,
      "tÄ±ÄŁ": 1434,
      "AT": 1435,
      "ĠâĢľ": 1436,
      "ĠsaÄŁlÄ±k": 1437,
      "aba": 1438,
      "tÄ±k": 1439,
      "ĠÃ¶de": 1440,
      "ĠkiÅŁi": 1441,
      "istan": 1442,
      "Ġyay": 1443,
      "Ġyorum": 1444,
      "vur": 1445,
      "mer": 1446,
      "akat": 1447,
      "ĠTek": 1448,
      "ilmiÅŁ": 1449,
      "ĠmaÃ§": 1450,
      "ĠÅŁu": 1451,
      "lim": 1452,
      "ĠTar": 1453,
      "trol": 1454,
      "tif": 1455,
      "azet": 1456,
      "ĠÃľn": 1457,
      "anÄ±t": 1458,
      "edav": 1459,
      "det": 1460,
      "cih": 1461,
      "ĠMÃ¼dÃ¼r": 1462,
      "ize": 1463,
      "ĠyÄ±lÄ±nda": 1464,
      "suz": 1465,
      "gÄ±": 1466,
      "BD": 1467,
      "Ġbilgi": 1468,
      "Ġmet": 1469,
      "ĠyÃ¼zde": 1470,
      "mir": 1471,
      "iyaret": 1472,
      "ĠgÃ¶nder": 1473,
      "Ġkabul": 1474,
      "ĠbaÅŁka": 1475,
      "ĠEs": 1476,
      "Ġdem": 1477,
      "ĠbirÃ§ok": 1478,
      "Ġyas": 1479,
      "TÃ¼rk": 1480,
      "ĠyayÄ±n": 1481,
      "ĠaraÃ§": 1482,
      "Ġ11": 1483,
      "Ä°R": 1484,
      "ĠsÄ±": 1485,
      "Ġkoy": 1486,
      "Ġayr": 1487,
      "ĠPar": 1488,
      "ĠbÃ¼tÃ¼n": 1489,
      "ĠBaÅŁkan": 1490,
      "Ġdiy": 1491,
      "oÄŁan": 1492,
      "ĠbÃ¶lÃ¼m": 1493,
      "ĠyaklaÅŁ": 1494,
      "lÄ±y": 1495,
      "Ġtah": 1496,
      "ĠardÄ±ndan": 1497,
      "Ã¶k": 1498,
      "Ä±ya": 1499,
      "Ġmilyon": 1500,
      "Ġkom": 1501,
      "Ġun": 1502,
      "tem": 1503,
      "Ġedilen": 1504,
      "AS": 1505,
      "Ġfilm": 1506,
      "ĠÂ": 1507,
      "Ã¼Ã§Ã¼k": 1508,
      "duÄŁ": 1509,
      "ĠiÃ§erisinde": 1510,
      "Ġedeb": 1511,
      "ĠÃ¼Ã§": 1512,
      "acaÄŁÄ±": 1513,
      "ediÄŁi": 1514,
      "gin": 1515,
      "eceÄŁi": 1516,
      "Ġkurum": 1517,
      "masÄ±na": 1518,
      "Ġtr": 1519,
      "Ġolabilir": 1520,
      "Ġkapsam": 1521,
      "Ġkonusunda": 1522,
      "Ġhan": 1523,
      "indeki": 1524,
      "ĠÃ§eÅŁit": 1525,
      "mez": 1526,
      "enek": 1527,
      "ĠCumhur": 1528,
      "asÄ±nÄ±n": 1529,
      "alt": 1530,
      "cek": 1531,
      "Ġ%": 1532,
      "ĠyakÄ±n": 1533,
      "ĠEl": 1534,
      "Ġtelefon": 1535,
      "Ġkes": 1536,
      "Ä±ldÄ±": 1537,
      "Ġbilin": 1538,
      "Ġhis": 1539,
      "isini": 1540,
      "anan": 1541,
      "ĠYap": 1542,
      "ES": 1543,
      "Ġdin": 1544,
      "Ġtercih": 1545,
      "Ä±lmasÄ±": 1546,
      "nde": 1547,
      "ch": 1548,
      "Ġid": 1549,
      "ilere": 1550,
      "orex": 1551,
      "ĠuÃ§": 1552,
      "ile": 1553,
      "Ġres": 1554,
      "Ġvat": 1555,
      "22": 1556,
      "Ã¼ltÃ¼r": 1557,
      "ĠdeÄŁerlendir": 1558,
      "ag": 1559,
      "Ġrahat": 1560,
      "andaÅŁ": 1561,
      "Ġyapan": 1562,
      "olar": 1563,
      "ĠAncak": 1564,
      "emm": 1565,
      "ele": 1566,
      "Ä±lÄ±r": 1567,
      "ĠAd": 1568,
      "Ġkalit": 1569,
      "OR": 1570,
      "ĠÃ¶ÄŁrenc": 1571,
      "ali": 1572,
      "Ġdah": 1573,
      "ĠÃ¼zerinden": 1574,
      "Ġyerine": 1575,
      "Ġ18": 1576,
      "oÄŁraf": 1577,
      "kÃ¼n": 1578,
      "ĠmÃ¼ÅŁter": 1579,
      "Ġhedef": 1580,
      "Ġmah": 1581,
      "acaktÄ±r": 1582,
      "ĠSan": 1583,
      "Ġhep": 1584,
      "ĠYar": 1585,
      "madan": 1586,
      "AY": 1587,
      "Ä±ma": 1588,
      "malÄ±": 1589,
      "AM": 1590,
      "izi": 1591,
      "abÄ±": 1592,
      "icaret": 1593,
      "Ġav": 1594,
      "ĠgeliÅŁtir": 1595,
      "manÄ±n": 1596,
      "ĠbÃ¶yle": 1597,
      "ber": 1598,
      "tÄ±ÄŁÄ±": 1599,
      "ĠÃ¼n": 1600,
      "lemek": 1601,
      "ĠAt": 1602,
      "ayet": 1603,
      "sik": 1604,
      "Ġ14": 1605,
      "ĠHer": 1606,
      "ĠBakan": 1607,
      "leyen": 1608,
      "rupa": 1609,
      "ĠkÄ±r": 1610,
      "ĠsonuÃ§": 1611,
      "Ġgelir": 1612,
      "ekk": 1613,
      "EK": 1614,
      "eyin": 1615,
      "iyesi": 1616,
      "isine": 1617,
      "ĠmÄ±": 1618,
      "Ä±ÅŁÄ±": 1619,
      "oÄŁu": 1620,
      "van": 1621,
      "Ġziyaret": 1622,
      "ĠvardÄ±r": 1623,
      "ĠYÄ±l": 1624,
      "Ġyapmak": 1625,
      "undan": 1626,
      "Ġsosyal": 1627,
      "kara": 1628,
      "ĠDev": 1629,
      "ebilirsiniz": 1630,
      "nek": 1631,
      "arasÄ±": 1632,
      "ĠBen": 1633,
      "Ġkez": 1634,
      "Ġkontrol": 1635,
      "imdi": 1636,
      "Ġkav": 1637,
      "oÄŁun": 1638,
      "Ã¼cad": 1639,
      "ow": 1640,
      "Ġ13": 1641,
      "hangi": 1642,
      "ĠsektÃ¶r": 1643,
      "Ġtur": 1644,
      "Ä±rs": 1645,
      "Ä±ÅŁtÄ±r": 1646,
      "ĠbugÃ¼n": 1647,
      "ektr": 1648,
      "akk": 1649,
      "),": 1650,
      "ĠAs": 1651,
      "Ä±yoruz": 1652,
      "Ġzamanda": 1653,
      "erli": 1654,
      "Ġincel": 1655,
      "Ä±yorum": 1656,
      "ĠmÃ¼m": 1657,
      "ĠyaptÄ±ÄŁÄ±": 1658,
      "uluk": 1659,
      "Ġdak": 1660,
      "Ġ16": 1661,
      "Ã¼b": 1662,
      "isyon": 1663,
      "Ġe": 1664,
      "Ġmas": 1665,
      "Ġmey": 1666,
      "gÄ±n": 1667,
      "ud": 1668,
      "ĠEv": 1669,
      "ĠbaÅŁvur": 1670,
      "ĠBÃ¼yÃ¼k": 1671,
      "ĠgÃ¶rÃ¼l": 1672,
      "Ġekonom": 1673,
      "ĠYÃ¶n": 1674,
      "sunuz": 1675,
      "ari": 1676,
      "ĠKan": 1677,
      "ĠMah": 1678,
      "Ġindir": 1679,
      "Ġtav": 1680,
      "Ġbor": 1681,
      "LAR": 1682,
      "erj": 1683,
      "ĠgiriÅŁ": 1684,
      "ĠdÃ¶nÃ¼ÅŁ": 1685,
      "Ġdevlet": 1686,
      "50": 1687,
      "Ġelde": 1688,
      "Ġtakip": 1689,
      "oloji": 1690,
      "Ã¼nÃ¼n": 1691,
      "Ġod": 1692,
      "Ġgereken": 1693,
      "miÅŁtir": 1694,
      "ĠaraÅŁtÄ±r": 1695,
      "Ġhesap": 1696,
      "Ġvur": 1697,
      "ĠmÃ¼mkÃ¼n": 1698,
      "unca": 1699,
      "ĠÃľniversit": 1700,
      "ĠoldukÃ§a": 1701,
      "landÄ±r": 1702,
      "Ġyen": 1703,
      "Ġzar": 1704,
      "ĠSer": 1705,
      "uc": 1706,
      "ĠÃ§alÄ±ÅŁan": 1707,
      "Ġkaynak": 1708,
      "EM": 1709,
      "12": 1710,
      "Ġli": 1711,
      "UR": 1712,
      "Ġilet": 1713,
      "Ġtoplan": 1714,
      "alarÄ±n": 1715,
      "Ã¼kÃ¼m": 1716,
      "ĠDÃ¼n": 1717,
      "Ġiti": 1718,
      "ĠÃĸzel": 1719,
      "Ġses": 1720,
      "ĠbaÄŁlÄ±": 1721,
      "Ġber": 1722,
      "ĠkÄ±sa": 1723,
      "Ġnedeniyle": 1724,
      "dÄ±ÄŁÄ±nÄ±": 1725,
      "ĠvatandaÅŁ": 1726,
      "Ġsize": 1727,
      "abilecek": 1728,
      "aliyet": 1729,
      "Ġmer": 1730,
      "ĠyÃ¶ntem": 1731,
      "amak": 1732,
      "ĠdÃ¼nya": 1733,
      "Ġ17": 1734,
      "lÄ±yor": 1735,
      "of": 1736,
      "ĠÄ°Ã§": 1737,
      "ĠMerkez": 1738,
      "taj": 1739,
      "ĠbÃ¼y": 1740,
      "gu": 1741,
      "amp": 1742,
      "Ġisim": 1743,
      "las": 1744,
      "doÄŁan": 1745,
      "Ġcev": 1746,
      "Ä±t": 1747,
      "ĠartÄ±k": 1748,
      "sil": 1749,
      "ĠyaÄŁ": 1750,
      "Ġolay": 1751,
      "Ġveren": 1752,
      "ĠtakÄ±m": 1753,
      "ĠkullanÄ±cÄ±": 1754,
      "Ġhalk": 1755,
      "acaÄŁÄ±nÄ±": 1756,
      "ĠÃ¶zellik": 1757,
      "ĠseÃ§im": 1758,
      "ĠsÄ±nÄ±r": 1759,
      "ate": 1760,
      "ĠgeÃ§en": 1761,
      "ĠyÃ¼ksel": 1762,
      "Ġbenz": 1763,
      "Ġgeri": 1764,
      "ĠgÃ¼nÃ¼": 1765,
      "ĠkayÄ±": 1766,
      "ĠkÄ±z": 1767,
      "Ġolsun": 1768,
      "Ġgeldi": 1769,
      "ĠkaldÄ±r": 1770,
      "iyi": 1771,
      "ĠTr": 1772,
      "HP": 1773,
      "Ġitibar": 1774,
      "Ġtoplum": 1775,
      "ĠABD": 1776,
      "Ġ2020": 1777,
      "ĠaltÄ±nda": 1778,
      "ĠÄ°z": 1779,
      "ohbet": 1780,
      "kinci": 1781,
      "ĠDr": 1782,
      "lÃ¼l": 1783,
      "Ġherhangi": 1784,
      "Ġinan": 1785,
      "ĠhiÃ§bir": 1786,
      "Ġbey": 1787,
      "Ã§Ä±": 1788,
      "ĠmÃ¼cad": 1789,
      "fer": 1790,
      "Ġmik": 1791,
      "ale": 1792,
      "Ġnokt": 1793,
      "ĠBiz": 1794,
      "Ġyarat": 1795,
      "isk": 1796,
      "Ġmark": 1797,
      "itik": 1798,
      "Ġtat": 1799,
      "Ġbenim": 1800,
      "000": 1801,
      "Ġtedav": 1802,
      "Ġmem": 1803,
      "ĠsÃ¶yledi": 1804,
      "ern": 1805,
      "ĠYeni": 1806,
      "Ġmodel": 1807,
      "Ġper": 1808,
      "uslar": 1809,
      "umlu": 1810,
      "ĠAvrupa": 1811,
      "ĠilÃ§": 1812,
      "ĠsÃ¼re": 1813,
      "umu": 1814,
      "Ġ30": 1815,
      "ĠgenÃ§": 1816,
      "tiÄŁi": 1817,
      "ĠKas": 1818,
      "tiv": 1819,
      "Ġbunu": 1820,
      "elen": 1821,
      "otoÄŁraf": 1822,
      "ĠanlaÅŁ": 1823,
      "adÄ±k": 1824,
      "Ġgerekir": 1825,
      "Ġmed": 1826,
      "baÅŁk": 1827,
      "ON": 1828,
      "for": 1829,
      "manÄ±z": 1830,
      "pr": 1831,
      "isinin": 1832,
      "Ġherk": 1833,
      "Ġ2021": 1834,
      "Ġyine": 1835,
      "ĠhÄ±zlÄ±": 1836,
      "Ġspor": 1837,
      "elerini": 1838,
      "ĠEy": 1839,
      "ani": 1840,
      "Ġhemen": 1841,
      "11": 1842,
      "ĠÃĸn": 1843,
      "ĠHal": 1844,
      "Ġetkin": 1845,
      "Ġtemel": 1846,
      "eÄŁin": 1847,
      "ĠÃ§evr": 1848,
      "Ġoran": 1849,
      "ekkÃ¼r": 1850,
      "Ġalmak": 1851,
      "Ġdir": 1852,
      "Ã¼sÃ¼": 1853,
      "ĠOn": 1854,
      "ĠKul": 1855,
      "ekli": 1856,
      "ĠÅŀub": 1857,
      "Ä°K": 1858,
      "landÄ±": 1859,
      "dana": 1860,
      "Ġinternet": 1861,
      "Ġokul": 1862,
      "uh": 1863,
      "30": 1864,
      "tin": 1865,
      "Ġfay": 1866,
      "Ġengel": 1867,
      "co": 1868,
      "Ġbar": 1869,
      "ĠAllah": 1870,
      "ĠkÃ¼Ã§Ã¼k": 1871,
      "duk": 1872,
      "ulan": 1873,
      "AD": 1874,
      "ĠBunun": 1875,
      "din": 1876,
      "uyla": 1877,
      "Ġedildi": 1878,
      "cut": 1879,
      "ĠOk": 1880,
      "nda": 1881,
      "Ġhafta": 1882,
      "dim": 1883,
      "ĠOl": 1884,
      "alat": 1885,
      "br": 1886,
      "Ġkil": 1887,
      "Ä°Y": 1888,
      "ĠdeÄŁiÅŁik": 1889,
      "Ġpek": 1890,
      "elere": 1891,
      "Ġcez": 1892,
      "ĠHaz": 1893,
      "Ä±lmÄ±ÅŁ": 1894,
      "Ġih": 1895,
      "ĠkoÅŁ": 1896,
      "aban": 1897,
      "Ä°M": 1898,
      "ite": 1899,
      "Ġekip": 1900,
      "ĠÃ§Ã¶zÃ¼m": 1901,
      "bak": 1902,
      "Ġrek": 1903,
      "LER": 1904,
      "all": 1905,
      "mem": 1906,
      "ÅŁehir": 1907,
      "Ġ2019": 1908,
      "Ġac": 1909,
      "Ġolup": 1910,
      "lÃ¼ÄŁÃ¼": 1911,
      "ĠtÃ¼k": 1912,
      "Ã¼f": 1913,
      "Ġsiyas": 1914,
      "ĠTop": 1915,
      "Ġedilm": 1916,
      "ĠyÃ¶nelik": 1917,
      "eceÄŁini": 1918,
      "imizin": 1919,
      "cÃ¼": 1920,
      "ĠTur": 1921,
      "ecektir": 1922,
      "Ġbildir": 1923,
      "Ġtemiz": 1924,
      "Ġfaaliyet": 1925,
      "ĠBelediye": 1926,
      "dÄ±n": 1927,
      "ĠdeÄŁiÅŁtir": 1928,
      "ĠcanlÄ±": 1929,
      "erasyon": 1930,
      "Ġsab": 1931,
      "Ġkonusu": 1932,
      "form": 1933,
      "ĠsatÄ±ÅŁ": 1934,
      "ĠKal": 1935,
      "alarda": 1936,
      "ĠKay": 1937,
      "inize": 1938,
      "Ġadet": 1939,
      "ĠNe": 1940,
      "Ġait": 1941,
      "Ä±sÄ±nda": 1942,
      "ĠsÃ¼rec": 1943,
      "Ġman": 1944,
      "vet": 1945,
      "Ġ2018": 1946,
      "ĠAyrÄ±ca": 1947,
      "TÃ¼rkiye": 1948,
      "ĠaÄŁÄ±r": 1949,
      "ĠbaÅŁladÄ±": 1950,
      "ilerini": 1951,
      "ij": 1952,
      "malarÄ±": 1953,
      "Ġberaber": 1954,
      "utbol": 1955,
      "Ġoluyor": 1956,
      "Ġbizim": 1957,
      "Ġkesin": 1958,
      "ĠSaÄŁ": 1959,
      "tim": 1960,
      "eyim": 1961,
      "esel": 1962,
      "Ar": 1963,
      "ĠÃ¶zellikle": 1964,
      "ift": 1965,
      "Ä±nÄ±zÄ±": 1966,
      "Ġkir": 1967,
      "amÄ±": 1968,
      "Ġbunun": 1969,
      "Ġeski": 1970,
      "Ġsin": 1971,
      "Ġsey": 1972,
      "Ġpr": 1973,
      "ĠiliÅŁk": 1974,
      "Ġtekrar": 1975,
      "ĠKo": 1976,
      "Ġsoru": 1977,
      "ĠÅŁeh": 1978,
      "AÅŀ": 1979,
      "dem": 1980,
      "pan": 1981,
      "Ġof": 1982,
      "ĠEÄŁitim": 1983,
      "adÄ±ÄŁÄ±nÄ±": 1984,
      "elerde": 1985,
      "etay": 1986,
      "Ġrenk": 1987,
      "can": 1988,
      "etmen": 1989,
      "ĠdeÄŁildir": 1990,
      "larÄ±yla": 1991,
      "Ġsak": 1992,
      "ĠsaldÄ±r": 1993,
      "ĠyardÄ±mcÄ±": 1994,
      "Al": 1995,
      "Ġyeniden": 1996,
      "dum": 1997,
      "imizi": 1998,
      "Ġkut": 1999,
      "ĠihtiyaÃ§": 2000,
      "Ġcih": 2001,
      "bu": 2002,
      "Ġuzak": 2003,
      "Ġsayf": 2004,
      "Ġvak": 2005,
      "ĠgeniÅŁ": 2006,
      "lo": 2007,
      "alÄ±m": 2008,
      ".|": 2009,
      "Ã¼ler": 2010,
      "ukuk": 2011,
      "ĠAnkara": 2012,
      "ĠKad": 2013,
      "ĠÃ§aÄŁ": 2014,
      "ĠraÄŁ": 2015,
      "Ġ2017": 2016,
      "lilik": 2017,
      "ĠsavaÅŁ": 2018,
      "ve": 2019,
      "enc": 2020,
      "Ġsil": 2021,
      "ayfa": 2022,
      "Ġ.": 2023,
      "ker": 2024,
      "isan": 2025,
      "Ġiddi": 2026,
      "ĠOy": 2027,
      "ĠBÃ¶l": 2028,
      "esinden": 2029,
      "iran": 2030,
      "afa": 2031,
      "Ġkitap": 2032,
      "Ġner": 2033,
      "ĠÃľniversitesi": 2034,
      "asin": 2035,
      "Ġbiraz": 2036,
      "ĠsatÄ±n": 2037,
      "acaÄŁÄ±z": 2038,
      "ĠsÃ¼rdÃ¼r": 2039,
      "Ġolmayan": 2040,
      "ĠÅŁart": 2041,
      "Ġgerekli": 2042,
      "Ġweb": 2043,
      "Ġbank": 2044,
      "bah": 2045,
      "ĠMart": 2046,
      "meden": 2047,
      "ni": 2048,
      "be": 2049,
      "Ġerk": 2050,
      "ĠErdoÄŁan": 2051,
      "Ä±rken": 2052,
      "ĠÃ§alÄ±ÅŁma": 2053,
      "ilerine": 2054,
      "ĠkÄ±y": 2055,
      "Ġmevcut": 2056,
      "ĠHas": 2057,
      "ww": 2058,
      "15": 2059,
      "cort": 2060,
      "latform": 2061,
      "iyeti": 2062,
      "ĠsayÄ±": 2063,
      "Ġsayesinde": 2064,
      "ĠAma": 2065,
      "imize": 2066,
      "ĠbaÄŁlan": 2067,
      "uyu": 2068,
      "Ġarac": 2069,
      "sman": 2070,
      "ĠÃ§eÅŁitli": 2071,
      "ĠhÃ¼kÃ¼m": 2072,
      "Ä±sÄ±ndan": 2073,
      "larÄ±nÄ±z": 2074,
      "ĠÃ§Ä±kan": 2075,
      "Ġyarar": 2076,
      "ĠmÃ¼z": 2077,
      "lardÄ±r": 2078,
      "line": 2079,
      "ĠraÄŁmen": 2080,
      "asÄ±ndaki": 2081,
      "izm": 2082,
      "ĠÃ¶ner": 2083,
      "Ġail": 2084,
      "uÄŁ": 2085,
      "meyi": 2086,
      "avaÅŁ": 2087,
      "nÄ±z": 2088,
      "Ġortak": 2089,
      "ĠalÄ±ÅŁ": 2090,
      "ĠsuÃ§": 2091,
      "ĠUy": 2092,
      "ĠAK": 2093,
      "onu": 2094,
      "ĠyÃ¶netim": 2095,
      "arken": 2096,
      "lis": 2097,
      "Ġdair": 2098,
      "mÃ¼ÅŁ": 2099,
      "Ġstr": 2100,
      "dÃ¼l": 2101,
      "Ġ24": 2102,
      "edim": 2103,
      "tÄ±m": 2104,
      "Ġders": 2105,
      "efer": 2106,
      "Ġyat": 2107,
      "deÅŁ": 2108,
      "Ġboz": 2109,
      "ĠadÄ±m": 2110,
      "Ġtalep": 2111,
      "Ġotom": 2112,
      "ĠGel": 2113,
      "Son": 2114,
      "hat": 2115,
      "Ġisteyen": 2116,
      "vis": 2117,
      "Ġdiz": 2118,
      "lek": 2119,
      "ime": 2120,
      "alet": 2121,
      "ĠGÃ¶r": 2122,
      "ĠdoÄŁr": 2123,
      "kil": 2124,
      "Ġedin": 2125,
      "ĠBay": 2126,
      ").": 2127,
      "Ä±nÄ±f": 2128,
      "emmuz": 2129,
      "ĠBelediyesi": 2130,
      "azi": 2131,
      "ĠiliÅŁkin": 2132,
      "LI": 2133,
      "isay": 2134,
      "Ġbirbir": 2135,
      "ĠteÅŁekkÃ¼r": 2136,
      "ĠdolayÄ±": 2137,
      "uslararasÄ±": 2138,
      "apor": 2139,
      "Ġistem": 2140,
      "aten": 2141,
      "ĠsÄ±ra": 2142,
      "ĠForex": 2143,
      "leriyle": 2144,
      "Ġzarar": 2145,
      "ĠgerÃ§ekleÅŁ": 2146,
      "Ġpazar": 2147,
      "dÃ¼ÄŁ": 2148,
      "Ġhiss": 2149,
      "alnÄ±z": 2150,
      "ĠtÄ±k": 2151,
      "amÄ±z": 2152,
      "Ä±lÄ±ÄŁ": 2153,
      "Ġ100": 2154,
      "Ġticaret": 2155,
      "ĠkapsamÄ±nda": 2156,
      "sÄ±nÄ±z": 2157,
      "ĠaÃ§Ä±l": 2158,
      "ĠMayÄ±s": 2159,
      "ĠKasÄ±m": 2160,
      "ĠHay": 2161,
      "Ã¼nden": 2162,
      "Ġotur": 2163,
      "Ġsanat": 2164,
      "esiyle": 2165,
      "lk": 2166,
      "Ġteknik": 2167,
      "ĠyoÄŁun": 2168,
      "Ä°n": 2169,
      "taÅŁ": 2170,
      "ED": 2171,
      "erson": 2172,
      "ĠfotoÄŁraf": 2173,
      "ĠamaÃ§": 2174,
      "ĠMar": 2175,
      "ĠtanÄ±m": 2176,
      "Ä±ntÄ±": 2177,
      "imde": 2178,
      "Ġdahil": 2179,
      "ba": 2180,
      "ĠistediÄŁ": 2181,
      "ĠÃ§iz": 2182,
      "Ġoyuncu": 2183,
      "lÄ±nda": 2184,
      "Ġnedenle": 2185,
      "Ġelektr": 2186,
      "Ġmillet": 2187,
      "Ġdayan": 2188,
      "asÄ±ndan": 2189,
      "ĠyanÄ±": 2190,
      "ati": 2191,
      "ince": 2192,
      "Ġfin": 2193,
      "ĠolacaktÄ±r": 2194,
      "lÃ¼ÄŁ": 2195,
      "ĠÃ¶lÃ§": 2196,
      "ĠparÃ§": 2197,
      "Ġsizin": 2198,
      "Ġlis": 2199,
      "ÅŁam": 2200,
      "ĠseÃ§enek": 2201,
      "ĠKr": 2202,
      "ehmet": 2203,
      "Ġcan": 2204,
      "ĠboÅŁ": 2205,
      "ĠÃ¼retim": 2206,
      "ĠOt": 2207,
      "ĠÅŁekl": 2208,
      "tep": 2209,
      "yle": 2210,
      "Ġonun": 2211,
      "ĠEm": 2212,
      "ook": 2213,
      "Ġ2016": 2214,
      "ĠRus": 2215,
      "ĠTemmuz": 2216,
      "Ġsitesi": 2217,
      "Ġ25": 2218,
      "ĠUz": 2219,
      "ĠuÄŁr": 2220,
      "ĠsaÄŁlay": 2221,
      "Ã¼cÃ¼": 2222,
      "mal": 2223,
      "ĠÃĩÃ¼nkÃ¼": 2224,
      "yar": 2225,
      "Ġamac": 2226,
      "Ġhale": 2227,
      "pit": 2228,
      "Ġgez": 2229,
      "ĠDem": 2230,
      "kaÃ§": 2231,
      "ĠiÅŁlet": 2232,
      "Ġbay": 2233,
      "tiÄŁini": 2234,
      "atif": 2235,
      "Ġyani": 2236,
      "Ġdetay": 2237,
      "Ä°S": 2238,
      "ĠDaha": 2239,
      "ĠOcak": 2240,
      "ener": 2241,
      "ĠÃ¶rg": 2242,
      "isel": 2243,
      "Ġistiyor": 2244,
      "anlar": 2245,
      "ĠinÅŁ": 2246,
      "ĠkayÄ±t": 2247,
      "Ġ21": 2248,
      "ĠBey": 2249,
      "Ä°Z": 2250,
      "Ġseviy": 2251,
      "Ġboyunca": 2252,
      "ĠIn": 2253,
      "Ġteh": 2254,
      "Ġsar": 2255,
      "ĠVe": 2256,
      "day": 2257,
      "ĠKom": 2258,
      "one": 2259,
      "Ġip": 2260,
      "ĠTekn": 2261,
      "eceÄŁiniz": 2262,
      "ĠkÄ±sm": 2263,
      "Ġbeklen": 2264,
      "Ġanda": 2265,
      "okr": 2266,
      "Ġtoplam": 2267,
      "Ġsahibi": 2268,
      "ĠBah": 2269,
      "Ġiy": 2270,
      "Ġimz": 2271,
      "cÄ±sÄ±": 2272,
      "ons": 2273,
      "Ġsok": 2274,
      "ilecek": 2275,
      "ĠkÃ¼ltÃ¼r": 2276,
      "ĠÅŁehir": 2277,
      "Ġortam": 2278,
      "ĠyaÅŁan": 2279,
      "Ġsez": 2280,
      "ĠdÄ±ÅŁÄ±nda": 2281,
      "Ġikinci": 2282,
      "Ġsohbet": 2283,
      "ĠbakÄ±m": 2284,
      "ĠartÄ±r": 2285,
      "AB": 2286,
      "Ġfayd": 2287,
      "isayar": 2288,
      "Ġdurumda": 2289,
      "ĠgÃ¼ncel": 2290,
      "alarÄ±nda": 2291,
      "ĠkonuÅŁtu": 2292,
      "Ġ23": 2293,
      "Ã¶rt": 2294,
      "Ġetkil": 2295,
      "Ġgrup": 2296,
      "ĠParti": 2297,
      "Ġrak": 2298,
      "ĠyaptÄ±": 2299,
      "ĠÃ§ar": 2300,
      "Ġdok": 2301,
      "Ġgerekiyor": 2302,
      "Ġadam": 2303,
      "ĠyaklaÅŁÄ±k": 2304,
      "lif": 2305,
      "lin": 2306,
      "mesini": 2307,
      "ĠÂ»": 2308,
      "Ġbilgiler": 2309,
      "ĠEylÃ¼l": 2310,
      "ĠNisan": 2311,
      "Ġhangi": 2312,
      "diÄŁini": 2313,
      "Ġ22": 2314,
      "elerinin": 2315,
      "Ġyemek": 2316,
      "Ġnum": 2317,
      "Ġolsa": 2318,
      "Ġederek": 2319,
      "ĠaldÄ±": 2320,
      "ĠDevlet": 2321,
      "ĠAh": 2322,
      "uan": 2323,
      "etin": 2324,
      "Ã¼len": 2325,
      "ĠaÅŁaÄŁÄ±": 2326,
      "Ġey": 2327,
      "Ä±lÄ±m": 2328,
      "ĠmaÄŁ": 2329,
      "Ġdolar": 2330,
      "ere": 2331,
      "Ġburada": 2332,
      "ĠHar": 2333,
      "Ġtep": 2334,
      "Ġverdi": 2335,
      "inci": 2336,
      "Ġcihaz": 2337,
      "ital": 2338,
      "ĠkarÅŁÄ±laÅŁ": 2339,
      "ĠÄ°lk": 2340,
      "Ġdakika": 2341,
      "ĠAralÄ±k": 2342,
      "ĠEkim": 2343,
      "ĠHaziran": 2344,
      "ĠayrÄ±": 2345,
      "ĠsaÃ§": 2346,
      "Ġorgan": 2347,
      "Ġenerj": 2348,
      "iliÄŁ": 2349,
      "Ġmadde": 2350,
      "Ġtarihi": 2351,
      "luluk": 2352,
      "Ġuygulan": 2353,
      "asa": 2354,
      "Ġerkek": 2355,
      "Ġsebep": 2356,
      "Ġkah": 2357,
      "tay": 2358,
      "ÃľN": 2359,
      "rafik": 2360,
      "Ġhey": 2361,
      "Ä±da": 2362,
      "Ä±ÅŁÄ±k": 2363,
      "ĠettiÄŁ": 2364,
      "IR": 2365,
      "ĠDÃ¼nya": 2366,
      "Ġedecek": 2367,
      "Ġunut": 2368,
      "Ã¼ÄŁ": 2369,
      "meyen": 2370,
      "sÄ±n": 2371,
      "ĠÃĸÄŁr": 2372,
      "18": 2373,
      "ĠAli": 2374,
      "ĠkuruluÅŁ": 2375,
      "Ġmalz": 2376,
      "Ġmesaj": 2377,
      "rik": 2378,
      "elerine": 2379,
      "ebek": 2380,
      "Ġgelecek": 2381,
      "ind": 2382,
      "Ġgider": 2383,
      "yo": 2384,
      "ĠAb": 2385,
      "Ġanal": 2386,
      "etler": 2387,
      "anÄ±ÅŁ": 2388,
      "ĠÄ°ngil": 2389,
      "Ġcevap": 2390,
      "ĠkullanÄ±m": 2391,
      "Ġkaybet": 2392,
      "Ġrisk": 2393,
      "ĠÃĸr": 2394,
      "DE": 2395,
      "ĠiletiÅŁim": 2396,
      "ĠsÃ¼reÃ§": 2397,
      "ediye": 2398,
      "emi": 2399,
      "ĠHav": 2400,
      "ĠSur": 2401,
      "ideo": 2402,
      "ĠEt": 2403,
      "ĠfÄ±rs": 2404,
      "Ġhalinde": 2405,
      "ira": 2406,
      "24": 2407,
      "ĠbaÅŁlat": 2408,
      "atÃ¶r": 2409,
      "ĠettiÄŁi": 2410,
      "talya": 2411,
      "Ġst": 2412,
      "UN": 2413,
      "Ã¼le": 2414,
      "Ã¼mÃ¼": 2415,
      "Ġbize": 2416,
      "abancÄ±": 2417,
      "eÅŁtir": 2418,
      "Ġonu": 2419,
      "Ġbelg": 2420,
      "mey": 2421,
      "Ġend": 2422,
      "En": 2423,
      "Ġister": 2424,
      "atej": 2425,
      "emin": 2426,
      "menin": 2427,
      "Ġuzman": 2428,
      "masÄ±nÄ±n": 2429,
      "luÄŁ": 2430,
      "ĠSpor": 2431,
      "Ġgeliyor": 2432,
      "Ġmek": 2433,
      "fes": 2434,
      "mesine": 2435,
      "olojik": 2436,
      "Ä°T": 2437,
      "Ġplatform": 2438,
      "Ġdep": 2439,
      "Ġbekl": 2440,
      "Ġbana": 2441,
      "Ġtespit": 2442,
      "asino": 2443,
      "Ġaday": 2444,
      "ĠyaptÄ±ÄŁ": 2445,
      "mayan": 2446,
      "ĠsaÄŁlan": 2447,
      "Ay": 2448,
      "ĠHaberleri": 2449,
      "Ġadres": 2450,
      "layÄ±": 2451,
      "Ġmen": 2452,
      "Ġiler": 2453,
      "Ä±rÄ±": 2454,
      "Ġfik": 2455,
      "ĠaÃ§Ä±sÄ±ndan": 2456,
      "ormal": 2457,
      "ĠAmer": 2458,
      "ĠTak": 2459,
      "ĠadÄ±na": 2460,
      "Ġcid": 2461,
      "alara": 2462,
      "alarÄ±nÄ±": 2463,
      "sta": 2464,
      "ĠTarih": 2465,
      "Ġaktar": 2466,
      "ĠkiÅŁinin": 2467,
      "Ġana": 2468,
      "ĠÃ§Ä±ktÄ±": 2469,
      "su": 2470,
      "ĠsÄ±cak": 2471,
      "gun": 2472,
      "AZ": 2473,
      "ĠtÃ¼rlÃ¼": 2474,
      "ĠMehmet": 2475,
      "ĠKurulu": 2476,
      "Ġgazet": 2477,
      "alama": 2478,
      "ÃľR": 2479,
      "ĠyÃ¼rÃ¼t": 2480,
      "ilerinin": 2481,
      "25": 2482,
      "Ġhava": 2483,
      "Ġma": 2484,
      "har": 2485,
      "14": 2486,
      "ĠhatÄ±r": 2487,
      "stos": 2488,
      "egor": 2489,
      "Ġj": 2490,
      "ĠbiÃ§": 2491,
      "ĠAÃ§": 2492,
      "Ġkork": 2493,
      "vek": 2494,
      "Ġverilen": 2495,
      "ĠdoÄŁal": 2496,
      "ĠdÃ¼ÅŁÃ¼k": 2497,
      "usal": 2498,
      "Ġkayb": 2499,
      "amasÄ±": 2500,
      "Ġle": 2501,
      "abet": 2502,
      "ĠbaÅŁarÄ±lÄ±": 2503,
      "Ġtemsil": 2504,
      "elidir": 2505,
      "Ġ50": 2506,
      "ĠOsman": 2507,
      "16": 2508,
      "oktor": 2509,
      "tp": 2510,
      "ĠyapÄ±": 2511,
      "to": 2512,
      "Ġnak": 2513,
      "Ä±nÄ±za": 2514,
      "ĠyalnÄ±z": 2515,
      "Ġkonuda": 2516,
      "ĠkullanÄ±lan": 2517,
      "ĠÅŁÃ¶yle": 2518,
      "inc": 2519,
      "Ġbon": 2520,
      "Ġkorum": 2521,
      "ĠtasarÄ±m": 2522,
      "Ġnit": 2523,
      "Ġedebilir": 2524,
      "ĠÃ¶rnek": 2525,
      "Ġnet": 2526,
      "Ġcin": 2527,
      "Ġtart": 2528,
      "Ġdar": 2529,
      "ĠsÃ¼rekli": 2530,
      "ĠbaÅŁkan": 2531,
      "UL": 2532,
      "Ġlist": 2533,
      "Ġab": 2534,
      "Ġko": 2535,
      "ĠKap": 2536,
      "iliyor": 2537,
      "Ġsistemi": 2538,
      "uma": 2539,
      "irÃ¼s": 2540,
      "anÄ±z": 2541,
      "meleri": 2542,
      "**": 2543,
      "Ġbelli": 2544,
      "ĠsaÄŁlamak": 2545,
      "iliÄŁi": 2546,
      "Ġtarihinde": 2547,
      "antaj": 2548,
      "Ġizin": 2549,
      "evi": 2550,
      "ack": 2551,
      "ĠyanÄ±nda": 2552,
      "Ġkapat": 2553,
      "ĠbirkaÃ§": 2554,
      "otor": 2555,
      "ĠtÃ¼ket": 2556,
      "elikle": 2557,
      "meniz": 2558,
      "log": 2559,
      "siy": 2560,
      "ĠsÄ±nÄ±f": 2561,
      "'s": 2562,
      "ĠiÅŁaret": 2563,
      "Ġmedya": 2564,
      "stafa": 2565,
      "Ġpat": 2566,
      "adaki": 2567,
      "ĠÃ¼cretsiz": 2568,
      "abiliyor": 2569,
      "ĠBun": 2570,
      "ĠkÃ¶y": 2571,
      "ii": 2572,
      "ĠGÃ¼ncel": 2573,
      "emizde": 2574,
      "Ben": 2575,
      "Ġdavran": 2576,
      "ĠYaz": 2577,
      "//": 2578,
      "Ġdevr": 2579,
      "Ġfutbol": 2580,
      "ĠsÄ±rasÄ±nda": 2581,
      "Ġnedir": 2582,
      "ceÄŁ": 2583,
      "ĠkÃ¶tÃ¼": 2584,
      "ĠBank": 2585,
      "Ġmuht": 2586,
      "13": 2587,
      "lÄ±ÅŁ": 2588,
      "ĠYÃ¼k": 2589,
      "aca": 2590,
      "ĠPol": 2591,
      "Ä±sÄ±nÄ±": 2592,
      "AP": 2593,
      "ladÄ±ÄŁ": 2594,
      "miyor": 2595,
      "Ġgec": 2596,
      "IM": 2597,
      "ĠAÄŁu": 2598,
      "Ġmez": 2599,
      "ĠÅŀubat": 2600,
      "coin": 2601,
      "lendi": 2602,
      "ham": 2603,
      "ĠBakanlÄ±ÄŁÄ±": 2604,
      "baÅŁkanÄ±": 2605,
      "ren": 2606,
      "ĠÅŁeklinde": 2607,
      "Ã¼lt": 2608,
      "Ġanlay": 2609,
      "ĠBit": 2610,
      "ĠsÃ¶zleÅŁ": 2611,
      "ĠyÄ±k": 2612,
      "Ġham": 2613,
      "uvar": 2614,
      "Ä±yÄ±": 2615,
      "ĠadÄ±": 2616,
      "200": 2617,
      "Ġhesab": 2618,
      "Ġ2015": 2619,
      "Ġhastan": 2620,
      "Ä±mda": 2621,
      "Ġ[": 2622,
      "asÄ±yla": 2623,
      "Ġgiy": 2624,
      "ĠgÃ¼venlik": 2625,
      "23": 2626,
      "ladÄ±ÄŁÄ±": 2627,
      "gÃ¼r": 2628,
      "ĠbaÅŁlam": 2629,
      "ĠkardeÅŁ": 2630,
      "Ġmiktar": 2631,
      "bi": 2632,
      "DA": 2633,
      "ĠSÃ¶z": 2634,
      "ĠterÃ¶r": 2635,
      "ĠVer": 2636,
      "osu": 2637,
      "ĠtartÄ±ÅŁ": 2638,
      "aket": 2639,
      "ĠsaÄŁlam": 2640,
      "Ġderece": 2641,
      "Ġteslim": 2642,
      "Ġkas": 2643,
      "Ġyurt": 2644,
      "adolu": 2645,
      "ĠgÃ¼Ã§lÃ¼": 2646,
      "ĠHat": 2647,
      "ĠUl": 2648,
      "17": 2649,
      "://": 2650,
      "Ã¶v": 2651,
      "Ä±mÄ±za": 2652,
      "Ġmeydana": 2653,
      "mekte": 2654,
      "ĠHak": 2655,
      "Ġbulundu": 2656,
      "imleri": 2657,
      "Ġhukuk": 2658,
      "ĠMerkezi": 2659,
      "Ġherkes": 2660,
      "elerinde": 2661,
      "ĠyarÄ±ÅŁ": 2662,
      "ĠbaÅŁlay": 2663,
      "Ġrapor": 2664,
      "ĠSaÄŁlÄ±k": 2665,
      "lanmÄ±ÅŁ": 2666,
      "rans": 2667,
      "lÃ¼m": 2668,
      "Ġsezon": 2669,
      "lenme": 2670,
      "uya": 2671,
      "osy": 2672,
      "ĠyÃ¼zden": 2673,
      "Ġdemek": 2674,
      "ĠÄ°zmir": 2675,
      "Ã¼ncÃ¼": 2676,
      "Ä°ÅŁ": 2677,
      "Ġpart": 2678,
      "ĠYaÅŁ": 2679,
      "Ġpoz": 2680,
      "lerce": 2681,
      "iri": 2682,
      "ĠEÄŁer": 2683,
      "ĠyazÄ±": 2684,
      "ĠÅŁimdi": 2685,
      "ĠÅŁah": 2686,
      "ĠDoÄŁ": 2687,
      "ĠkoÅŁul": 2688,
      "ĠYardÄ±m": 2689,
      "ĠGazet": 2690,
      "Ä±mÄ±zda": 2691,
      "Ġperson": 2692,
      "resi": 2693,
      "Ġtamamen": 2694,
      "forman": 2695,
      "Ġit": 2696,
      "ĠGÃ¼ven": 2697,
      "Ġkalan": 2698,
      "blem": 2699,
      "Ġsebeb": 2700,
      "ĠkiÅŁiler": 2701,
      "Ġbaz": 2702,
      "ser": 2703,
      "Ġimk": 2704,
      "Ġform": 2705,
      "dÄ±z": 2706,
      "''": 2707,
      "eci": 2708,
      "ĠAlman": 2709,
      "adem": 2710,
      "ayacak": 2711,
      "aÄŁa": 2712,
      "ĠGir": 2713,
      "luÄŁu": 2714,
      "ĠAÄŁustos": 2715,
      "Ġdiyor": 2716,
      "ĠBar": 2717,
      "Ġsig": 2718,
      "Ġekonomik": 2719,
      "ĠÃ§ift": 2720,
      "ĠAf": 2721,
      "kem": 2722,
      "Ġpolis": 2723,
      "Ä±mÄ±zÄ±": 2724,
      "ĠÃĩok": 2725,
      "tiÄŁimiz": 2726,
      "ĠyapÄ±lacak": 2727,
      "per": 2728,
      "Ġekran": 2729,
      "go": 2730,
      "sak": 2731,
      "eÅŁil": 2732,
      "GÃ¼n": 2733,
      "veriÅŁ": 2734,
      "ĠyaptÄ±k": 2735,
      "ĠhastalÄ±k": 2736,
      "ova": 2737,
      "ĠKat": 2738,
      "ga": 2739,
      "ĠSit": 2740,
      "sen": 2741,
      "ĠyaptÄ±r": 2742,
      "Ġmobil": 2743,
      "ĠayrÄ±ca": 2744,
      "Ġdal": 2745,
      "onik": 2746,
      "ĠakÄ±l": 2747,
      "ĠgÃ¼nlÃ¼k": 2748,
      "Ġdon": 2749,
      "ork": 2750,
      "Ġtip": 2751,
      "Ġbab": 2752,
      "adde": 2753,
      "ĠgeÃ§miÅŁ": 2754,
      "ĠarasÄ±ndaki": 2755,
      "ĠsonrasÄ±": 2756,
      "liÄŁini": 2757,
      "air": 2758,
      "ĠvÃ¼c": 2759,
      "Ġkamu": 2760,
      "izyon": 2761,
      "laÅŁtÄ±r": 2762,
      "Ġinsanlar": 2763,
      "alarÄ±nÄ±n": 2764,
      "Ä±sÄ±na": 2765,
      "ansÄ±": 2766,
      "arlar": 2767,
      "malÄ±dÄ±r": 2768,
      "Ġkart": 2769,
      "Ġsonucu": 2770,
      "ĠÃ§oc": 2771,
      "ĠMillet": 2772,
      "Ġolun": 2773,
      "Ġsavun": 2774,
      "ukarÄ±": 2775,
      "ĠolmuÅŁ": 2776,
      "Ġciddi": 2777,
      "ĠÄ°st": 2778,
      "Ã»": 2779,
      "Ġpolitik": 2780,
      "Ä±nÄ±zda": 2781,
      "makta": 2782,
      "fen": 2783,
      "Ġdeneyim": 2784,
      "Ġmis": 2785,
      "ĠDeniz": 2786,
      "osta": 2787,
      "ĠDeÄŁ": 2788,
      "Ġemek": 2789,
      "ĠTer": 2790,
      "Ġstratej": 2791,
      "Ġbes": 2792,
      "Ġbilim": 2793,
      "Ġele": 2794,
      "ĠÃ§er": 2795,
      "iden": 2796,
      "manÄ±": 2797,
      "ĠkatkÄ±": 2798,
      "ĠTÃ¼m": 2799,
      "ilerek": 2800,
      "Ġitibaren": 2801,
      "ĠÃ§Ã¼nkÃ¼": 2802,
      "Ã¢n": 2803,
      "Ġservis": 2804,
      "Ġvarsa": 2805,
      "Ä±lÄ±ÄŁÄ±": 2806,
      "artesi": 2807,
      "Ġcam": 2808,
      "lÄ±kla": 2809,
      "05": 2810,
      "ĠAlt": 2811,
      "inizde": 2812,
      "inizin": 2813,
      "Ġedilir": 2814,
      "Ġopsiyon": 2815,
      "ĠMes": 2816,
      "emal": 2817,
      "Ġduyur": 2818,
      "daÄŁ": 2819,
      "Ġvermek": 2820,
      "Ġkalk": 2821,
      "ĠÃ¼niversit": 2822,
      "Ġkural": 2823,
      "ampiyon": 2824,
      "ĠDer": 2825,
      "ĠBakanÄ±": 2826,
      "gisi": 2827,
      "ĠyÄ±llÄ±k": 2828,
      "ĠBul": 2829,
      "Ġbilgisayar": 2830,
      "ĠMan": 2831,
      "ĠX": 2832,
      "ĠalÄ±yor": 2833,
      "Ġpan": 2834,
      "Ġteknoloj": 2835,
      "mar": 2836,
      "ĠMÃ¼dÃ¼rlÃ¼ÄŁÃ¼": 2837,
      "baÅŁ": 2838,
      "aÄŁÄ±t": 2839,
      "yum": 2840,
      "ersiz": 2841,
      "Ġtest": 2842,
      "dÃ¼ÄŁÃ¼": 2843,
      "ĠgÃ¼nde": 2844,
      "Ġhik": 2845,
      "ata": 2846,
      "ĠamacÄ±yla": 2847,
      "Ġsol": 2848,
      "ĠÃ¶ÄŁretmen": 2849,
      "Ġnok": 2850,
      "ĠÃ¶deme": 2851,
      "Ġhaline": 2852,
      "emez": 2853,
      "ĠÃ¼lke": 2854,
      "Ä±c": 2855,
      "Ġmerak": 2856,
      "ha": 2857,
      "ĠbasÄ±n": 2858,
      "ĠMustafa": 2859,
      "neÄŁin": 2860,
      "sim": 2861,
      "Ġorta": 2862,
      "ĠbaÅŁvuru": 2863,
      "Ġtrans": 2864,
      "ĠyanlÄ±ÅŁ": 2865,
      "yan": 2866,
      "Ġmilyar": 2867,
      "ĠaldÄ±ÄŁÄ±": 2868,
      "ĠÄ±s": 2869,
      "mamÄ±z": 2870,
      "erler": 2871,
      "Ġotel": 2872,
      "ogle": 2873,
      "Ġboyut": 2874,
      "dak": 2875,
      "Ġmakin": 2876,
      "mel": 2877,
      "Ġkey": 2878,
      "ĠalÄ±nan": 2879,
      "lulu": 2880,
      "Ġisten": 2881,
      "ayi": 2882,
      "ĠbulunduÄŁu": 2883,
      "lenmesi": 2884,
      "formans": 2885,
      "ĠverdiÄŁi": 2886,
      "imizde": 2887,
      "Ġmuh": 2888,
      "ĠsaÄŁlar": 2889,
      "Ã¼nÃ¼z": 2890,
      "imli": 2891,
      "eÄŁen": 2892,
      "ĠbulunmaktadÄ±r": 2893,
      "ĠyapÄ±yor": 2894,
      "Ġverir": 2895,
      "OL": 2896,
      "ĠVE": 2897,
      "Ġproblem": 2898,
      "ĠsayÄ±sÄ±": 2899,
      "ĠaltÄ±na": 2900,
      "Ġah": 2901,
      "Ġolmaz": 2902,
      "ĠsÄ±nav": 2903,
      "ĠBÃ¼yÃ¼kÅŁehir": 2904,
      "Ġhizmeti": 2905,
      "Ä±nca": 2906,
      "Ġzaten": 2907,
      "Ġann": 2908,
      "laka": 2909,
      "Ġoperasyon": 2910,
      "ĠvardÄ±": 2911,
      "Ġsonunda": 2912,
      "Ġsorum": 2913,
      "Ġruh": 2914,
      "Ġkaliteli": 2915,
      "ĠKÄ±r": 2916,
      "Ġ2014": 2917,
      "engin": 2918,
      "Ġeksik": 2919,
      "itap": 2920,
      "eks": 2921,
      "Ġtec": 2922,
      "tÃ¶r": 2923,
      "Kar": 2924,
      "ladÄ±k": 2925,
      "ĠbaÅŁlayan": 2926,
      "Ġum": 2927,
      "01": 2928,
      "IL": 2929,
      "Ġmemnun": 2930,
      "amsun": 2931,
      "ĠSu": 2932,
      "bilir": 2933,
      "ĠÃ¶rgÃ¼t": 2934,
      "Er": 2935,
      "etr": 2936,
      "ĠÄ°nsan": 2937,
      "azÄ±m": 2938,
      "ĠsonrasÄ±nda": 2939,
      "ĠRes": 2940,
      "Ġteklif": 2941,
      "Ġthe": 2942,
      "ĠTab": 2943,
      "ĠdÃ¼zenlenen": 2944,
      "Ġkelim": 2945,
      "Ã¼yorum": 2946,
      "ĠoluÅŁan": 2947,
      "lerdir": 2948,
      "Ġesn": 2949,
      "....": 2950,
      "ĠHan": 2951,
      "Ġ2013": 2952,
      "Ġ2022": 2953,
      "UM": 2954,
      "alÄ±dÄ±r": 2955,
      "Ġetkili": 2956,
      "ĠmÃ¼cadele": 2957,
      "uar": 2958,
      "oogle": 2959,
      "ĠKullan": 2960,
      "tul": 2961,
      "Ġsilah": 2962,
      "03": 2963,
      "ĠdÃ¼zey": 2964,
      "alarÄ±na": 2965,
      "ilendir": 2966,
      "fak": 2967,
      "Ġifad": 2968,
      "Ġyeterli": 2969,
      "Her": 2970,
      "ilmiÅŁtir": 2971,
      "ĠfÄ±rsat": 2972,
      "ĠNasÄ±l": 2973,
      "Ġ>": 2974,
      "ĠPer": 2975,
      "Ġyolu": 2976,
      "dÃ¼k": 2977,
      "Ġmin": 2978,
      "dÄ±ÄŁÄ±nda": 2979,
      "ĠMec": 2980,
      "Ġyum": 2981,
      "Ġkent": 2982,
      "Ã¼me": 2983,
      "enÃ¼z": 2984,
      "ĠkatÄ±lÄ±m": 2985,
      "Ġyerde": 2986,
      "ĠSal": 2987,
      "AH": 2988,
      "Ġgiz": 2989,
      "Ġneler": 2990,
      "Ġmalzem": 2991,
      "ĠSiz": 2992,
      "ĠÃĩocuk": 2993,
      "enler": 2994,
      "Ġbeni": 2995,
      "ĠKadÄ±n": 2996,
      "inÃ§": 2997,
      "siye": 2998,
      "Ġted": 2999,
      "eksiyon": 3000,
      "ĠdoÄŁrul": 3001,
      "ĠdÃ¼nyanÄ±n": 3002,
      "Ġkredi": 3003,
      "Ġescort": 3004,
      "ĠÃĩalÄ±ÅŁ": 3005,
      "ros": 3006,
      "ĠKÃ¼r": 3007,
      "Ġavantaj": 3008,
      "ĠdÃ¶nemde": 3009,
      "ĠAnadolu": 3010,
      "Ä±lÄ±yor": 3011,
      "abz": 3012,
      "imler": 3013,
      "Ġkaf": 3014,
      "ipar": 3015,
      "etik": 3016,
      "Ġgar": 3017,
      "mayÄ±n": 3018,
      "ĠBÃ¶yle": 3019,
      "ĠhoÅŁ": 3020,
      "ĠgerÃ§ekten": 3021,
      "iddet": 3022,
      "lÄ±lÄ±k": 3023,
      "Ġstan": 3024,
      "abilmek": 3025,
      "ke": 3026,
      "Ġkayn": 3027,
      "ebook": 3028,
      "ĠmÃ¼cadel": 3029,
      "ĠTel": 3030,
      "ĠartÄ±ÅŁ": 3031,
      "Ġuyar": 3032,
      "ou": 3033,
      "ĠÃĩin": 3034,
      "Ġokuy": 3035,
      "Ã§ev": 3036,
      "yonel": 3037,
      "unlarÄ±": 3038,
      "eceÄŁiz": 3039,
      "Ġzorunda": 3040,
      "ĠaslÄ±nda": 3041,
      "ĠÃľr": 3042,
      "ĠÄ°slam": 3043,
      "Ġvideo": 3044,
      "09": 3045,
      "madÄ±": 3046,
      "med": 3047,
      "ia": 3048,
      "Ġyoktur": 3049,
      "ĠProf": 3050,
      "ĠGeÃ§": 3051,
      "ĠinsanlarÄ±n": 3052,
      "Ġkarak": 3053,
      "ĠMilli": 3054,
      "ĠyabancÄ±": 3055,
      "Ġgru": 3056,
      "Ġ28": 3057,
      "OS": 3058,
      "Ġreklam": 3059,
      "Ġonay": 3060,
      "04": 3061,
      "ĠHizmet": 3062,
      "mÄ±yor": 3063,
      "Ã¼ny": 3064,
      "ĠdeÄŁiÅŁiklik": 3065,
      "Ä±mÄ±zÄ±n": 3066,
      "ĠbaÅŁlan": 3067,
      "ĠbaÅŁÄ±na": 3068,
      "fesyonel": 3069,
      "Ä±nt": 3070,
      "tern": 3071,
      "spor": 3072,
      "asyonu": 3073,
      "ĠyaÅŁanan": 3074,
      "Ġasker": 3075,
      "ĠYani": 3076,
      "Ġdurumu": 3077,
      "Ġfakat": 3078,
      "Ġvaz": 3079,
      "seniz": 3080,
      "rac": 3081,
      "emen": 3082,
      "Ġsunul": 3083,
      "Ġedilmesi": 3084,
      "ĠÃ¶ldÃ¼r": 3085,
      "Ġkum": 3086,
      "ĠyaÅŁayan": 3087,
      "kili": 3088,
      "ĠGer": 3089,
      "gen": 3090,
      "Ġ...": 3091,
      "gesi": 3092,
      "ĠSt": 3093,
      "Ġfor": 3094,
      "ĠMÃ¼dÃ¼rÃ¼": 3095,
      "ĠtanÄ±t": 3096,
      "ĠsayÄ±da": 3097,
      "Ġbulunuyor": 3098,
      "adÄ±m": 3099,
      "Ġhatta": 3100,
      "Ġsizi": 3101,
      "Ġyana": 3102,
      "alÄ±ÄŁ": 3103,
      "ĠCHP": 3104,
      "eyn": 3105,
      "Ġbahs": 3106,
      "ina": 3107,
      "Ġpuan": 3108,
      "Ġgece": 3109,
      "ayÄ±sÄ±yla": 3110,
      "lÃ¢": 3111,
      "06": 3112,
      "ĠMer": 3113,
      "ĠdÃ¶rt": 3114,
      "Ġkampan": 3115,
      "Ġnormal": 3116,
      "Ġfak": 3117,
      "Ġetkinlik": 3118,
      "Ġaraya": 3119,
      "Ġona": 3120,
      "geÃ§": 3121,
      "Ġnerede": 3122,
      "ĠGenÃ§": 3123,
      "larÄ±nÄ±zÄ±": 3124,
      "Ġettik": 3125,
      "Ġbirey": 3126,
      "Ġkendini": 3127,
      "Ġfirmalar": 3128,
      "iÅŁi": 3129,
      "ĠÄ°ÅŁte": 3130,
      "ĠilaÃ§": 3131,
      "Ã¼slÃ¼m": 3132,
      "umhur": 3133,
      "Ġtedavi": 3134,
      "ĠRusya": 3135,
      "ijital": 3136,
      "Ġsonuc": 3137,
      "Ġdo": 3138,
      "ĠetmiÅŁ": 3139,
      "atÃ¼rk": 3140,
      "Ġdost": 3141,
      "lenmiÅŁ": 3142,
      "gÃ¶r": 3143,
      "fi": 3144,
      "Ġperformans": 3145,
      "Ġdile": 3146,
      "ildiÄŁ": 3147,
      "ÂŃ": 3148,
      "Ġgol": 3149,
      "07": 3150,
      "Ġ27": 3151,
      "aÅŁa": 3152,
      "Ġcil": 3153,
      "urum": 3154,
      "ĠbaÄŁÄ±m": 3155,
      "Ãĸz": 3156,
      "Ġ?": 3157,
      "Ġyem": 3158,
      "ete": 3159,
      "ton": 3160,
      "ediy": 3161,
      "Ã¼ph": 3162,
      "niyet": 3163,
      "ĠolmadÄ±ÄŁÄ±nÄ±": 3164,
      "ĠMal": 3165,
      "ĠAÅŁ": 3166,
      "acebook": 3167,
      "Ġtarz": 3168,
      "ĠiÃ§erik": 3169,
      "ĠaÅŁk": 3170,
      "ebilecek": 3171,
      "yas": 3172,
      "Ak": 3173,
      "08": 3174,
      "Ġbuna": 3175,
      "ĠSel": 3176,
      "Ġsefer": 3177,
      "Ġilan": 3178,
      "ĠSev": 3179,
      "ĠFakat": 3180,
      "ĠÃ¶yle": 3181,
      "ĠSÃ¼r": 3182,
      "ildiÄŁi": 3183,
      "Bur": 3184,
      "mÄ±ÅŁtÄ±": 3185,
      "ĠyÄ±lÄ±": 3186,
      "Ġayak": 3187,
      "Ã¼per": 3188,
      "ĠayÄ±nda": 3189,
      "rek": 3190,
      "ĠÃ¶lÃ¼m": 3191,
      "teki": 3192,
      "Ġsiteleri": 3193,
      "Ġbayan": 3194,
      "uvvet": 3195,
      "ĠOd": 3196,
      "ĠgÃ¶rÃ¼nt": 3197,
      "Ġbelirten": 3198,
      "ĠSar": 3199,
      "Ä±sÄ±nÄ±n": 3200,
      "Ġuc": 3201,
      "eÅŁik": 3202,
      "ĠSor": 3203,
      "Ġediyorum": 3204,
      "ĠgÃ¶rÃ¼ntÃ¼": 3205,
      "Ġyaparak": 3206,
      "ĠgÃ¼venilir": 3207,
      "ĠDemir": 3208,
      "izik": 3209,
      "Ġdoktor": 3210,
      "ĠÃ¶dÃ¼l": 3211,
      "ĠAhmet": 3212,
      "02": 3213,
      "ðŁ": 3214,
      "ĠBor": 3215,
      "Ġ26": 3216,
      "par": 3217,
      "Ġmotor": 3218,
      "amam": 3219,
      "Ġdeniz": 3220,
      "Ã¢r": 3221,
      "Ġkamer": 3222,
      "Ġic": 3223,
      "ĠYak": 3224,
      "vekili": 3225,
      "oda": 3226,
      "astik": 3227,
      "Ġanaliz": 3228,
      "ĠaÅŁam": 3229,
      "ĠMak": 3230,
      "ĠkÄ±l": 3231,
      "ĠalÄ±m": 3232,
      "ĠYÃ¶netim": 3233,
      "Ġyere": 3234,
      "Ġyararlan": 3235,
      "mamÄ±ÅŁ": 3236,
      "imin": 3237,
      "Ġdurumunda": 3238,
      "Ġhayvan": 3239,
      "Ġtesis": 3240,
      "Ġkanal": 3241,
      "ĠSen": 3242,
      "pp": 3243,
      "Ġ199": 3244,
      ".)": 3245,
      "Ġuygulama": 3246,
      "ikayet": 3247,
      "28": 3248,
      "ĠbaÅŁarÄ±": 3249,
      "Ġresmi": 3250,
      "ĠBas": 3251,
      "ĠSat": 3252,
      "ĠPart": 3253,
      "26": 3254,
      "Ã¼lÃ¼": 3255,
      "dit": 3256,
      "Ġkullanarak": 3257,
      "larca": 3258,
      "lÄ±ÄŁÄ±nÄ±": 3259,
      "ĠProj": 3260,
      "zer": 3261,
      "ĠgÃ¶rmek": 3262,
      "ĠsaÄŁlÄ±klÄ±": 3263,
      "IK": 3264,
      "Ġre": 3265,
      "umsuz": 3266,
      "ation": 3267,
      "acaÄŁÄ±nÄ±z": 3268,
      "masÄ±nda": 3269,
      "wit": 3270,
      "ĠgerektiÄŁini": 3271,
      "Ġir": 3272,
      "istik": 3273,
      "ĠyapÄ±lmasÄ±": 3274,
      "yÄ±": 3275,
      "ĠyatÄ±rÄ±mcÄ±": 3276,
      "ĠSosyal": 3277,
      "Ä°Åŀ": 3278,
      "Ġmutlu": 3279,
      "mamak": 3280,
      "Ġpersonel": 3281,
      "ĠalanÄ±nda": 3282,
      "gar": 3283,
      "unan": 3284,
      "ust": 3285,
      "ĠAÄŁ": 3286,
      "bakan": 3287,
      "ĠgiriÅŁim": 3288,
      "Ġalanda": 3289,
      "Ġzorun": 3290,
      "ĠmÃ¼ÅŁteri": 3291,
      "Ġ&": 3292,
      "ĠuÃ§ak": 3293,
      "ĠtaÅŁÄ±m": 3294,
      "Ġistiyorum": 3295,
      "Ġsizlere": 3296,
      "Ġgerekmektedir": 3297,
      "ĠÃĸzellikle": 3298,
      "ĠYorum": 3299,
      "abilm": 3300,
      "ĠYÃ¶net": 3301,
      "ï¿": 3302,
      "iir": 3303,
      "ĠmÃ¼da": 3304,
      "ĠÃ¶nceki": 3305,
      "ĠkararÄ±": 3306,
      "lanmasÄ±": 3307,
      "ĠbaÅŁÄ±nda": 3308,
      "ï¿½": 3309,
      "Ġkarakter": 3310,
      "Ġderec": 3311,
      "Ġarada": 3312,
      "Ġyandan": 3313,
      "Ġayar": 3314,
      "lisi": 3315,
      "ediÄŁini": 3316,
      "ĠTem": 3317,
      "Ġelektrik": 3318,
      "ĠgÃ¶tÃ¼r": 3319,
      "Ġzengin": 3320,
      "rim": 3321,
      "ST": 3322,
      "LE": 3323,
      "lerinizi": 3324,
      "Ġand": 3325,
      "27": 3326,
      "yÄ±l": 3327,
      "Ġnokta": 3328,
      "dart": 3329,
      "ĠÃ§arp": 3330,
      "uzey": 3331,
      "Ġmutlaka": 3332,
      "yen": 3333,
      "Ġrol": 3334,
      "acaÄŁÄ±na": 3335,
      "Ġyapar": 3336,
      "muÅŁtur": 3337,
      "ona": 3338,
      "ĠÃ¶nÃ¼nde": 3339,
      "AC": 3340,
      "Ġfinans": 3341,
      "ĠÃ§erÃ§ev": 3342,
      "duÄŁunu": 3343,
      "Ġilgi": 3344,
      "Ġmar": 3345,
      "lev": 3346,
      "Ġbasit": 3347,
      "Ġhaft": 3348,
      "Ä°stanbul": 3349,
      "Ġdosy": 3350,
      "ĠuluslararasÄ±": 3351,
      "ĠkuÅŁ": 3352,
      "Ã§ak": 3353,
      "arkÄ±": 3354,
      "ink": 3355,
      "Ġonline": 3356,
      "ĠFrans": 3357,
      "ĠaltÄ±n": 3358,
      "Ġazal": 3359,
      "ĠsÃ¶yley": 3360,
      "Ã§iler": 3361,
      "ĠsoÄŁ": 3362,
      "mada": 3363,
      "Ġsp": 3364,
      "ĠeÄŁlen": 3365,
      "edeki": 3366,
      "ĠdÃ¼ÅŁÃ¼nc": 3367,
      "Yeni": 3368,
      "Ġhayal": 3369,
      "Ġbenzer": 3370,
      "Ġtoprak": 3371,
      "ipariÅŁ": 3372,
      "Ġarz": 3373,
      "ĠÃ§ocuÄŁ": 3374,
      "ĠolmadÄ±ÄŁÄ±": 3375,
      "enerbah": 3376,
      "elerden": 3377,
      "ĠCumhuriyet": 3378,
      "Ġzam": 3379,
      "Ġbal": 3380,
      "Ġvurgul": 3381,
      "Ġsiyasi": 3382,
      "Ġeser": 3383,
      "Ġtoplant": 3384,
      "ĠmÃ¼k": 3385,
      "Ġberi": 3386,
      "ĠsaÄŁlayan": 3387,
      "Ã¼mÃ¼zde": 3388,
      "Ġ29": 3389,
      "hend": 3390,
      "ĠaÃ§Ä±klamada": 3391,
      "ĠYÃ¼ksek": 3392,
      "Ġcasino": 3393,
      "ĠsÃ¶ylem": 3394,
      "gr": 3395,
      "Ġokum": 3396,
      "Ġtarif": 3397,
      "bur": 3398,
      "Ġpop": 3399,
      "uzur": 3400,
      "Ġdam": 3401,
      "ĠhenÃ¼z": 3402,
      "ĠayÄ±r": 3403,
      "larÄ±m": 3404,
      "rÃ¼b": 3405,
      "ĠSistem": 3406,
      "alatasar": 3407,
      "Ġsene": 3408,
      "and": 3409,
      "ĠsayÄ±lÄ±": 3410,
      "ĠarttÄ±r": 3411,
      "ĠalÄ±ÅŁveriÅŁ": 3412,
      "Ġenerji": 3413,
      "Ġsite": 3414,
      "Ġsahiptir": 3415,
      "ĠAynÄ±": 3416,
      "ĠKÃ¼ltÃ¼r": 3417,
      "Ġfikir": 3418,
      "alatasaray": 3419,
      "ka": 3420,
      "ord": 3421,
      "ĠbuluÅŁ": 3422,
      "Ġmerkezi": 3423,
      "Ġeylem": 3424,
      "ĠtaÅŁÄ±n": 3425,
      "ĠHastan": 3426,
      "asi": 3427,
      "\",": 3428,
      "Ġfon": 3429,
      "ĠadlÄ±": 3430,
      "ĠdÃ¶v": 3431,
      "rem": 3432,
      "sÄ±": 3433,
      "29": 3434,
      "ĠÅŁiddet": 3435,
      "Ġdakik": 3436,
      "Ġveriyor": 3437,
      "ĠKaz": 3438,
      "lenir": 3439,
      "ĠkiÅŁisel": 3440,
      "Ġ2012": 3441,
      "Ġsem": 3442,
      "ĠbeÅŁ": 3443,
      "ĠFat": 3444,
      "mÄ±zÄ±": 3445,
      "ĠkeÅŁ": 3446,
      "tÄ±ÄŁÄ±nÄ±": 3447,
      "ĠSuriye": 3448,
      "ĠKol": 3449,
      "her": 3450,
      "Ġnes": 3451,
      "son": 3452,
      "acaÄŁÄ±m": 3453,
      "Ġnumar": 3454,
      "Ġalacak": 3455,
      "2021": 3456,
      "tere": 3457,
      "ĠyanÄ±t": 3458,
      "Ġ40": 3459,
      "Ġhala": 3460,
      "ĠkazanÃ§": 3461,
      "ĠSayfa": 3462,
      "Ġharc": 3463,
      "Ġmekan": 3464,
      "Ġbilet": 3465,
      "ĠdiÅŁ": 3466,
      "gili": 3467,
      "Ġbizi": 3468,
      "sÄ±zlÄ±k": 3469,
      "ĠÄ°ngiliz": 3470,
      "Haber": 3471,
      "ĠÃ§alÄ±ÅŁmalarÄ±": 3472,
      "ayla": 3473,
      "ĠfÄ±r": 3474,
      "ĠalÄ±r": 3475,
      "ĠateÅŁ": 3476,
      "Ġlider": 3477,
      "ĠKÃ¶": 3478,
      "Ä±lacak": 3479,
      "Ġkims": 3480,
      "Ġnef": 3481,
      "altÄ±": 3482,
      "Ġkaydet": 3483,
      "ĠyapÄ±lÄ±r": 3484,
      "Ġtavsiye": 3485,
      "EV": 3486,
      "ĠBin": 3487,
      "Ġgenellikle": 3488,
      "OK": 3489,
      "sas": 3490,
      "Ġdoldur": 3491,
      "Ùİ": 3492,
      "ĠGÃ¶": 3493,
      "gam": 3494,
      "yap": 3495,
      "larÄ±mÄ±zÄ±n": 3496,
      "Ġgay": 3497,
      "ĠLig": 3498,
      "ĠedeceÄŁ": 3499,
      "ĠeÄŁit": 3500,
      "Ġcep": 3501,
      "ĠLis": 3502,
      "ard": 3503,
      "Ġbilgileri": 3504,
      "ala": 3505,
      "Ġtaleb": 3506,
      "Ġyazar": 3507,
      "Ä±sÄ±t": 3508,
      "40": 3509,
      "Ġ+": 3510,
      "Gen": 3511,
      "Ġodak": 3512,
      "ĠÃ¶ÄŁrenciler": 3513,
      "ilim": 3514,
      "Ġtehlik": 3515,
      "ĠtaÅŁÄ±y": 3516,
      "Ġkonum": 3517,
      "Ġihtiyac": 3518,
      "ĠÃ¶zgÃ¼r": 3519,
      "Ġkurtar": 3520,
      "Ã¶ren": 3521,
      "ĠÃ¼ye": 3522,
      "ĠÃ§evir": 3523,
      "adÄ±r": 3524,
      "ĠdÄ±ÅŁÄ±": 3525,
      "aÅŁÄ±r": 3526,
      "ger": 3527,
      "ĠÃ§ab": 3528,
      "Ġileri": 3529,
      "Ġceza": 3530,
      "ron": 3531,
      "ĠCumhurbaÅŁkanÄ±": 3532,
      "ĠKam": 3533,
      "ĠdeÄŁerli": 3534,
      "ĠMed": 3535,
      "Ġkayde": 3536,
      "ĠeÄŁer": 3537,
      "ĠbaÅŁta": 3538,
      "asayfa": 3539,
      "ĠAm": 3540,
      "ĠFiyat": 3541,
      "tak": 3542,
      "Ġediyoruz": 3543,
      "ullah": 3544,
      "kar": 3545,
      "Ãĸn": 3546,
      "ĠhayatÄ±nÄ±": 3547,
      "ĠDern": 3548,
      "ĠlazÄ±m": 3549,
      "dam": 3550,
      "ĠCh": 3551,
      "ilebilir": 3552,
      "ĠÃ§oÄŁu": 3553,
      "ilmektedir": 3554,
      "iydi": 3555,
      "ĠTarihi": 3556,
      "liye": 3557,
      "ĠkazandÄ±r": 3558,
      "Ġolumsuz": 3559,
      "ĠMahall": 3560,
      "layÄ±n": 3561,
      "ĠaracÄ±": 3562,
      "best": 3563,
      "Ġmec": 3564,
      "ĠDol": 3565,
      "lanÄ±r": 3566,
      "hale": 3567,
      "Ã½": 3568,
      "ĠgÃ¶steren": 3569,
      "enerbahÃ§e": 3570,
      "Ġidar": 3571,
      "Ġyapacak": 3572,
      "ĠÄ°Ã§in": 3573,
      "tiler": 3574,
      "ĠBirliÄŁi": 3575,
      "Ġpo": 3576,
      "ĠoÄŁ": 3577,
      "ĠarasÄ±": 3578,
      "ĠmÃ¼zik": 3579,
      "Ġfazl": 3580,
      "bay": 3581,
      "Ġtahmin": 3582,
      "Ek": 3583,
      "nam": 3584,
      "ĠBaÄŁ": 3585,
      "ĠKim": 3586,
      "eliÄŁ": 3587,
      "cil": 3588,
      "ĠkÃ¼r": 3589,
      "IZ": 3590,
      "iÅŁleri": 3591,
      "ĠÃ§at": 3592,
      "tadan": 3593,
      "ĠsaldÄ±rÄ±": 3594,
      "Ġyans": 3595,
      "ledi": 3596,
      "eÅŁiktaÅŁ": 3597,
      "Ä±lmaz": 3598,
      "Ġdek": 3599,
      "emmel": 3600,
      "terek": 3601,
      "Ġalarak": 3602,
      "uru": 3603,
      "ĠKemal": 3604,
      "ĠyapmÄ±ÅŁ": 3605,
      "--": 3606,
      "Ã¼ya": 3607,
      "ĠFilm": 3608,
      "ĠAtatÃ¼rk": 3609,
      "2020": 3610,
      "Ġtutuk": 3611,
      "ĠHakk": 3612,
      "Ġhalde": 3613,
      "ĠiÃ§ine": 3614,
      "ĠÃ§al": 3615,
      "ĠdÃ¶k": 3616,
      "iÃ§ek": 3617,
      "ess": 3618,
      "witter": 3619,
      "Ġederim": 3620,
      "ĠBugÃ¼n": 3621,
      "liyor": 3622,
      "ĠGÃ¼l": 3623,
      "lÄ±ÄŁÄ±n": 3624,
      "ĠAÃ§Ä±k": 3625,
      "say": 3626,
      "ulmasÄ±": 3627,
      "Ġderin": 3628,
      "EY": 3629,
      "Ã¼yle": 3630,
      "Ġbelki": 3631,
      "esiz": 3632,
      "uyoruz": 3633,
      "dÄ±ktan": 3634,
      "US": 3635,
      "ĠÅŁeyler": 3636,
      "KK": 3637,
      "Ã¼tfen": 3638,
      "ĠSay": 3639,
      "Ġbelirli": 3640,
      "ĠSeÃ§": 3641,
      "ĠeleÅŁtir": 3642,
      "ĠdaÄŁ": 3643,
      "ĠborÃ§": 3644,
      "ĠTÃ¼rkÃ§e": 3645,
      "Ġfaiz": 3646,
      "Ġolabil": 3647,
      "ĠÅŁÃ¼ph": 3648,
      "Ġbeyaz": 3649,
      "ĠfiyatlarÄ±": 3650,
      "ĠiÃ§i": 3651,
      "inal": 3652,
      "Ġprofesyonel": 3653,
      "Ġbed": 3654,
      "Ġheyec": 3655,
      "kÄ±n": 3656,
      "kenin": 3657,
      "ĠÃ¼nlÃ¼": 3658,
      "ĠyavaÅŁ": 3659,
      "ĠDiy": 3660,
      "oman": 3661,
      "ĠÄ°yi": 3662,
      "ĠÅŁans": 3663,
      "Ġnot": 3664,
      "Biz": 3665,
      "Ġeg": 3666,
      "uro": 3667,
      "ĠKÄ±z": 3668,
      "Ġlisans": 3669,
      "ĠSin": 3670,
      "Ġlim": 3671,
      "Ġkendisine": 3672,
      "ĠÃ¶ÄŁ": 3673,
      "esindeki": 3674,
      "Ġyolc": 3675,
      "Ġkorun": 3676,
      "ipto": 3677,
      "rail": 3678,
      "ĠiÅŁi": 3679,
      "Ġpaket": 3680,
      "dal": 3681,
      "eyle": 3682,
      "ĠtecrÃ¼b": 3683,
      "Ä±ldÄ±ÄŁÄ±": 3684,
      "ĠgÃ¼venli": 3685,
      "Ã¼yoruz": 3686,
      "ĠAydÄ±n": 3687,
      "Ġproje": 3688,
      "ĠÅŁeyi": 3689,
      "Ġ09": 3690,
      "Ġbi": 3691,
      "ĠSanat": 3692,
      "ĠKor": 3693,
      "rin": 3694,
      "hi": 3695,
      "Ġkurtul": 3696,
      "eng": 3697,
      "EC": 3698,
      "ĠPazar": 3699,
      "Ä±sÄ±nÄ±z": 3700,
      "onya": 3701,
      "ĠyayÄ±m": 3702,
      "ĠakÅŁam": 3703,
      "Pro": 3704,
      "ĠTay": 3705,
      "ĠsÄ±rada": 3706,
      "ĠaylÄ±k": 3707,
      "Ġolursa": 3708,
      "Ġkavram": 3709,
      "ĠDÃ¶n": 3710,
      "Ġbelirtti": 3711,
      "ĠaÃ§Ä±klama": 3712,
      "ahim": 3713,
      "cÄ±lÄ±k": 3714,
      "Ġaile": 3715,
      "ĠBitcoin": 3716,
      "ivil": 3717,
      "Anasayfa": 3718,
      "iyah": 3719,
      "Ġizley": 3720,
      "Ġarama": 3721,
      "EÄŁ": 3722,
      "Ġyeri": 3723,
      "ĠYer": 3724,
      "ĠÃ¼rÃ¼nleri": 3725,
      "Ġemin": 3726,
      "Ġkategor": 3727,
      "ĠyalnÄ±zca": 3728,
      "ĠOL": 3729,
      "mÃ¼r": 3730,
      "ĠTan": 3731,
      "ĠÃľy": 3732,
      "ĠgÃ¶ren": 3733,
      "evizyon": 3734,
      "ĠyazÄ±lÄ±m": 3735,
      "ĠÃ¶nemlidir": 3736,
      "izasyon": 3737,
      "Ġpozisyon": 3738,
      "Ä±larak": 3739,
      "ĠÃ¶ne": 3740,
      "Ġtemsilc": 3741,
      "Ġ''": 3742,
      "Ġdefa": 3743,
      "Ġ:)": 3744,
      "diÄŁimiz": 3745,
      "Ġhikay": 3746,
      "andÄ±r": 3747,
      "ĠBursa": 3748,
      "dikleri": 3749,
      "Ġikti": 3750,
      "Ana": 3751,
      "BaÅŁ": 3752,
      "ĠCan": 3753,
      "oker": 3754,
      "onav": 3755,
      "Ġhayata": 3756,
      "Ġenf": 3757,
      "stagram": 3758,
      "Ġdef": 3759,
      "ĠMÃ¼": 3760,
      "ĠiÅŁe": 3761,
      "iklet": 3762,
      "ĠgÃ¼c": 3763,
      "ĠÃ¶nÃ¼ne": 3764,
      "Ġmaliyet": 3765,
      "Ġkesinlikle": 3766,
      "yse": 3767,
      "ĠBr": 3768,
      "meli": 3769,
      "taki": 3770,
      "Ġsoy": 3771,
      "Ġ*": 3772,
      "ĠsÃ¼rede": 3773,
      "Ġsabah": 3774,
      "akar": 3775,
      "tion": 3776,
      "Ġaray": 3777,
      "80": 3778,
      "tepe": 3779,
      "ĠGÃ¶k": 3780,
      "uyorum": 3781,
      "Ġmesaf": 3782,
      "Ġetmektedir": 3783,
      "lÄ±ÄŁa": 3784,
      "Ġhuzur": 3785,
      "atur": 3786,
      "ĠyukarÄ±": 3787,
      "ĠyaÅŁÄ±ndaki": 3788,
      "Ġiptal": 3789,
      "raman": 3790,
      "Ġsek": 3791,
      "Ġbirisi": 3792,
      "Ġdolu": 3793,
      "urat": 3794,
      "ĠKurul": 3795,
      "ĠProgram": 3796,
      "elt": 3797,
      "Ġtransfer": 3798,
      "Ġanlamda": 3799,
      "Ġkop": 3800,
      "ĠalanÄ±": 3801,
      "ise": 3802,
      "Ã¼slÃ¼man": 3803,
      "Ġprot": 3804,
      "pek": 3805,
      "ĠtoplantÄ±": 3806,
      "ĠTes": 3807,
      "ĠyÄ±ldÄ±r": 3808,
      "afir": 3809,
      "ĠKÄ±": 3810,
      "ĠDiÄŁer": 3811,
      "iber": 3812,
      "erken": 3813,
      "ĠiÅŁlemi": 3814,
      "lÄ±ÄŁÄ±na": 3815,
      "allah": 3816,
      "iyim": 3817,
      "endi": 3818,
      "keri": 3819,
      "Ġgide": 3820,
      "Ġgal": 3821,
      "ĠyapÄ±ldÄ±": 3822,
      "Ġolma": 3823,
      "sat": 3824,
      "alam": 3825,
      "ĠÃĩev": 3826,
      "ĠDerneÄŁi": 3827,
      "layarak": 3828,
      "liÄŁinde": 3829,
      "ĠbeÄŁen": 3830,
      "ĠOyun": 3831,
      "Ġtaz": 3832,
      "Ġbonus": 3833,
      "Ġfil": 3834,
      "iciler": 3835,
      "ĠdeÄŁiÅŁim": 3836,
      "Ġbebek": 3837,
      "ĠhÃ¼c": 3838,
      "Ġaktif": 3839,
      "ĠyaygÄ±n": 3840,
      "Ġdemokr": 3841,
      "ĠdÃ¶neminde": 3842,
      "ĠAL": 3843,
      "El": 3844,
      "AV": 3845,
      "ĠdÃ¼ÄŁ": 3846,
      "60": 3847,
      "Ä±yorlar": 3848,
      "are": 3849,
      "elerinden": 3850,
      "daÅŁ": 3851,
      "ĠdÃ¼ÅŁÃ¼r": 3852,
      "idi": 3853,
      "ĠDÃ¼z": 3854,
      "ĠMod": 3855,
      "Ä±lÄ±Ã§": 3856,
      "abileceÄŁiniz": 3857,
      "ĠFak": 3858,
      "Or": 3859,
      "ene": 3860,
      "ĠkullandÄ±": 3861,
      "Ġsonraki": 3862,
      "Ġdavet": 3863,
      "ĠyerleÅŁ": 3864,
      "Ġbitir": 3865,
      "Ġesas": 3866,
      "ĠVal": 3867,
      "ĠonlarÄ±": 3868,
      "ĠsÄ±kÄ±ntÄ±": 3869,
      "diler": 3870,
      "mamasÄ±": 3871,
      "tps": 3872,
      "ĠfiyatÄ±": 3873,
      "ĠHaberler": 3874,
      "ĠaÃ§Ä±kladÄ±": 3875,
      "ĠdÃ¼nyada": 3876,
      "ĠTicaret": 3877,
      "Ġtatil": 3878,
      "ĠÃ¶nlem": 3879,
      "amay": 3880,
      "ekim": 3881,
      "35": 3882,
      "lamasÄ±": 3883,
      "ĠMÃ¼z": 3884,
      "ĠaldÄ±ÄŁ": 3885,
      "acÄ±lÄ±k": 3886,
      "Ġyerinde": 3887,
      "ĠistediÄŁiniz": 3888,
      "lÄ±klÄ±": 3889,
      "Ġkampany": 3890,
      "mail": 3891,
      "racat": 3892,
      "Ġimkan": 3893,
      "our": 3894,
      "ĠonlarÄ±n": 3895,
      "ĠUygul": 3896,
      "Ġettir": 3897,
      "Ġyerel": 3898,
      "Ġtakdir": 3899,
      "Ġazalt": 3900,
      "ĠDav": 3901,
      "Ġhafif": 3902,
      "Ġht": 3903,
      "Ä°s": 3904,
      "his": 3905,
      "hendis": 3906,
      "atÄ±rÄ±m": 3907,
      "2019": 3908,
      "Ġbat": 3909,
      "Ġbelirterek": 3910,
      "ĠKend": 3911,
      "ĠkarÅŁÄ±sÄ±nda": 3912,
      "ĠAmerika": 3913,
      "Ġmadd": 3914,
      "Ġmat": 3915,
      "rom": 3916,
      "liÄŁe": 3917,
      "aÄŁan": 3918,
      "ĠÅŀimdi": 3919,
      "Ġlira": 3920,
      "Ġkok": 3921,
      "posta": 3922,
      "ĠgÃ¼nlerde": 3923,
      "dÄ±klarÄ±": 3924,
      "Ġucuz": 3925,
      "Ġiddia": 3926,
      "IÅŀ": 3927,
      "zet": 3928,
      "iyer": 3929,
      "brÄ±s": 3930,
      "YA": 3931,
      "ĠTaÅŁ": 3932,
      "ze": 3933,
      "ESÄ°": 3934,
      "Ã¢h": 3935,
      "ai": 3936,
      "ternatif": 3937,
      "ĠAnd": 3938,
      "ĠAlmanya": 3939,
      "ĠdanÄ±ÅŁ": 3940,
      "miÅŁti": 3941,
      "ĠBilg": 3942,
      "Ġstandart": 3943,
      "ĠOp": 3944,
      "tuk": 3945,
      "ku": 3946,
      "ĠAlan": 3947,
      "Ġbol": 3948,
      "Ä±sÄ±z": 3949,
      "alim": 3950,
      "Ġvb": 3951,
      "ĠCam": 3952,
      "ĠyÄ±llarda": 3953,
      "Ġlez": 3954,
      "ĠÄ°lÃ§e": 3955,
      "ĠOsmanlÄ±": 3956,
      "Ġsona": 3957,
      "Ġef": 3958,
      "ĠâĢĺ": 3959,
      "Ġtabi": 3960,
      "LÄ°": 3961,
      "45": 3962,
      "erv": 3963,
      "Tar": 3964,
      "ĠsÃ¼t": 3965,
      "ĠGoogle": 3966,
      "medi": 3967,
      "larÄ±mÄ±zÄ±": 3968,
      "ĠÅŁif": 3969,
      "Ġsonucunda": 3970,
      "lediÄŁi": 3971,
      "ultan": 3972,
      "ĠSamsun": 3973,
      "ĠhÃ¢": 3974,
      "alÄ±ÄŁÄ±": 3975,
      "embe": 3976,
      "ĠBurada": 3977,
      "Ġolumlu": 3978,
      "Ġ2011": 3979,
      "Ġgaz": 3980,
      "Ġyiy": 3981,
      "ĠkarÅŁÄ±lÄ±k": 3982,
      "ĠoranÄ±": 3983,
      "ĠolmuÅŁtur": 3984,
      "Ġhisset": 3985,
      "ĠeriÅŁ": 3986,
      "ĠÃ¶den": 3987,
      "Ad": 3988,
      "Ġotomobil": 3989,
      "?\"": 3990,
      "Ġtutar": 3991,
      "ĠedilmiÅŁ": 3992,
      "Ġalma": 3993,
      "Ġsur": 3994,
      "AÄŀ": 3995,
      "lanÄ±yor": 3996,
      "elerle": 3997,
      "ĠAraÅŁtÄ±r": 3998,
      "ĠdÃ¼zenlem": 3999,
      "oca": 4000,
      "liler": 4001,
      "Ġpsik": 4002,
      "likleri": 4003,
      "ĠTV": 4004,
      "ĠYardÄ±mcÄ±sÄ±": 4005,
      "ĠseÃ§en": 4006,
      "Ġedebilirsiniz": 4007,
      "ĠyerleÅŁtir": 4008,
      "Ġdel": 4009,
      "Ġhizmetleri": 4010,
      "OM": 4011,
      "Ġhap": 4012,
      "Ġetme": 4013,
      "Ġsel": 4014,
      "ĠpiÅŁ": 4015,
      "ĠkiÅŁilerin": 4016,
      "Ġyoksa": 4017,
      "gÄ±Ã§": 4018,
      "Ġmesel": 4019,
      "edeni": 4020,
      "Ġoyunu": 4021,
      "Ġto": 4022,
      "gal": 4023,
      "Ġus": 4024,
      "Ġgerektir": 4025,
      "ĠHalk": 4026,
      "ĠGÃ¶z": 4027,
      "Ġbirim": 4028,
      "ayÄ±f": 4029,
      "Ġotomatik": 4030,
      "ĠsipariÅŁ": 4031,
      "mayacak": 4032,
      "ĠakÄ±llÄ±": 4033,
      "ĠAntalya": 4034,
      "Ġara": 4035,
      "ĠdavranÄ±ÅŁ": 4036,
      "illi": 4037,
      "2018": 4038,
      "roid": 4039,
      "Ġakl": 4040,
      "Ġduygu": 4041,
      "Ġyasak": 4042,
      "Ġhac": 4043,
      "ersin": 4044,
      ".,": 4045,
      "Ġbilinen": 4046,
      "eygam": 4047,
      "Ġolmadan": 4048,
      "utan": 4049,
      "ĠiÅŁlemleri": 4050,
      "ĠÃĩar": 4051,
      "ĠKoca": 4052,
      "ĠkapÄ±": 4053,
      "ĠkaldÄ±": 4054,
      "ĠkarÄ±ÅŁ": 4055,
      "emizin": 4056,
      "ĠTrabz": 4057,
      "unma": 4058,
      "Ġfizik": 4059,
      "ĠÃ§ap": 4060,
      "bette": 4061,
      "Ġsorunu": 4062,
      "Ġbundan": 4063,
      "ema": 4064,
      "ĠVar": 4065,
      "ĠYol": 4066,
      "ĠMahallesi": 4067,
      "tic": 4068,
      "ĠanlamÄ±na": 4069,
      "Ġpas": 4070,
      "Ġton": 4071,
      "www": 4072,
      "qu": 4073,
      "Ġkendine": 4074,
      "ĠHam": 4075,
      "liÄŁin": 4076,
      "ĠdoÄŁrudan": 4077,
      "sine": 4078,
      "Ġte": 4079,
      "ows": 4080,
      "ĠNo": 4081,
      "ĠÃ¶zelliÄŁi": 4082,
      "icari": 4083,
      "ses": 4084,
      "Ġerken": 4085,
      "ĠBunu": 4086,
      "ĠÅŁikayet": 4087,
      "Ġaf": 4088,
      "diÄŁiniz": 4089,
      "ĠvazgeÃ§": 4090,
      "Ġveri": 4091,
      "Ġseyahat": 4092,
      "lÄ±klar": 4093,
      "Ġyasal": 4094,
      "Ġ500": 4095,
      "ĠuÃ§uÅŁ": 4096,
      "ĠgÃ¼l": 4097,
      "Ġday": 4098,
      "ĠSah": 4099,
      "ĠVak": 4100,
      "ĠyetiÅŁ": 4101,
      "ĠmeÅŁ": 4102,
      "Ġtemin": 4103,
      "asÄ±n": 4104,
      "undaki": 4105,
      "asit": 4106,
      "Ã¶yl": 4107,
      "Ġâ": 4108,
      "ĠGÃ¼ncelleme": 4109,
      "rum": 4110,
      "Ġverilm": 4111,
      "Ġtedbir": 4112,
      "ĠÃ¼rÃ¼nler": 4113,
      "ediler": 4114,
      "TC": 4115,
      "sizlik": 4116,
      "ĠBankasÄ±": 4117,
      "ĠhayÄ±r": 4118,
      "err": 4119,
      "ĠDak": 4120,
      "ĠBal": 4121,
      "ĠÅŁar": 4122,
      "Ġap": 4123,
      "eyiz": 4124,
      "tel": 4125,
      "hone": 4126,
      "Ðµ": 4127,
      "cÄ±lar": 4128,
      "etleri": 4129,
      "Ã¼stÃ¼": 4130,
      "ĠBayram": 4131,
      "Dev": 4132,
      "ĠAB": 4133,
      "ĠÃ§Ä±kÄ±ÅŁ": 4134,
      "Ġsokak": 4135,
      "ĠolmasÄ±na": 4136,
      "ĠBet": 4137,
      "estor": 4138,
      "Ä±f": 4139,
      "Ġyapmaya": 4140,
      "ĠpopÃ¼ler": 4141,
      "ew": 4142,
      "ĠiÅŁÃ§": 4143,
      "ĠÃ¶zellikleri": 4144,
      "ĠSavaÅŁ": 4145,
      "ĠgÃ¼neÅŁ": 4146,
      "ndan": 4147,
      "liÄŁine": 4148,
      "Ġsert": 4149,
      "ediÄŁiniz": 4150,
      "ĠyetiÅŁtir": 4151,
      "alardan": 4152,
      "ĠÃ§eken": 4153,
      "ĠDÄ±ÅŁ": 4154,
      "ezi": 4155,
      "DP": 4156,
      "ĠalmÄ±ÅŁ": 4157,
      "Ġvakit": 4158,
      "Tek": 4159,
      "ĠAR": 4160,
      "Ġdijital": 4161,
      "tarÄ±": 4162,
      "Av": 4163,
      "isiniz": 4164,
      "ĠKah": 4165,
      "eygamber": 4166,
      "isinden": 4167,
      "ĠaÅŁaÄŁÄ±daki": 4168,
      "Ġ)": 4169,
      "sur": 4170,
      "Ġbirik": 4171,
      "Ġforex": 4172,
      "Ġizle": 4173,
      "ĠÅŀah": 4174,
      "ĠnÃ¼f": 4175,
      "Ġ60": 4176,
      "Ã¼ndeki": 4177,
      "leÅŁme": 4178,
      "ebiliriz": 4179,
      "Ġevde": 4180,
      "ĠÃľst": 4181,
      "nden": 4182,
      "Ġanne": 4183,
      "erseniz": 4184,
      "Ġyada": 4185,
      "ĠGazi": 4186,
      "âĢ¢": 4187,
      "ĠÅŀirket": 4188,
      "eceÄŁine": 4189,
      "aza": 4190,
      "Ġkonut": 4191,
      "adi": 4192,
      "Ġiyil": 4193,
      "ĠgeÃ§erli": 4194,
      "ĠmÃ¼kemmel": 4195,
      "Ġsap": 4196,
      "unuzu": 4197,
      "Ġhisse": 4198,
      "Ġolanak": 4199,
      "ĠhakkÄ±": 4200,
      "Ġsonu": 4201,
      "ĠilÃ§esinde": 4202,
      "sini": 4203,
      "Ġfel": 4204,
      "eÄŁini": 4205,
      "Ä±sÄ±r": 4206,
      "Ġkeyif": 4207,
      "Ä±rÄ±m": 4208,
      "ĠbaÅŁlar": 4209,
      "Ġbunlar": 4210,
      "Ġoyunc": 4211,
      "ban": 4212,
      "ĠkullanÄ±mÄ±": 4213,
      "ĠÃ¼Ã§Ã¼ncÃ¼": 4214,
      "ĠÄ°ran": 4215,
      "iyorlar": 4216,
      "Ġoku": 4217,
      "ĠyÄ±lda": 4218,
      "Ġyakalan": 4219,
      "ĠÄ±ÅŁ": 4220,
      "ĠÃľlk": 4221,
      "Ġdahi": 4222,
      "ĠasÄ±l": 4223,
      "ĠMas": 4224,
      "Ġasla": 4225,
      "Ġyetkil": 4226,
      "ĠÃĸrneÄŁin": 4227,
      "mur": 4228,
      "ĠÃ¶ncesi": 4229,
      "lerimizi": 4230,
      "ĠsÃ¼resi": 4231,
      "Ġetmeye": 4232,
      "ĠDen": 4233,
      "Ġpay": 4234,
      "dikten": 4235,
      "Ġyaralan": 4236,
      "ĠyazÄ±lÄ±": 4237,
      "ĠprogramÄ±": 4238,
      "ĠÄ±ÅŁÄ±k": 4239,
      "ĠYÄ±lmaz": 4240,
      "onavirÃ¼s": 4241,
      "ĠTeknik": 4242,
      "ĠEscort": 4243,
      "ĠbiÃ§imde": 4244,
      "ĠbÃ¼t": 4245,
      "Ġkuvvet": 4246,
      "ĠDur": 4247,
      "Ä±nÄ±zÄ±n": 4248,
      "ĠYÃ¼z": 4249,
      "ĠEÅŁ": 4250,
      "Ã§uk": 4251,
      "EB": 4252,
      "Ġhus": 4253,
      "ĠHol": 4254,
      "As": 4255,
      "ĠYayÄ±n": 4256,
      "estiv": 4257,
      "Ġikili": 4258,
      "rika": 4259,
      "Ġteknoloji": 4260,
      "Ä±ÅŁma": 4261,
      "ĠinsanÄ±n": 4262,
      "ĠRec": 4263,
      "dÃ¼m": 4264,
      "Ġnedeni": 4265,
      "ube": 4266,
      "ĠÃ¼lkenin": 4267,
      "ĠsÃ¼reci": 4268,
      "Ä±klÄ±": 4269,
      "Ä±labilir": 4270,
      "ĠAz": 4271,
      "imar": 4272,
      "DÃ¼n": 4273,
      "Ġkans": 4274,
      "Ġserbest": 4275,
      "Ġkod": 4276,
      "ĠHem": 4277,
      "ĠFir": 4278,
      "Ġla": 4279,
      "hane": 4280,
      "Ġlir": 4281,
      "ĠmÃ¼dÃ¼r": 4282,
      "aka": 4283,
      "iyan": 4284,
      "kr": 4285,
      "Ġokun": 4286,
      "ĠaraÅŁtÄ±rma": 4287,
      "emiÅŁ": 4288,
      "ĠaydÄ±n": 4289,
      "ĠUn": 4290,
      "ĠkatÄ±ldÄ±": 4291,
      "Ġkimse": 4292,
      "Ġkm": 4293,
      "tis": 4294,
      "Ġ31": 4295,
      "Cumhur": 4296,
      "31": 4297,
      "ĠiÅŁbir": 4298,
      "Ä±lÄ±ÄŁÄ±yla": 4299,
      "fet": 4300,
      "ĠThe": 4301,
      "Ġrakam": 4302,
      "ĠeÅŁy": 4303,
      "Ä°l": 4304,
      "Ġdu": 4305,
      "avi": 4306,
      "ĠiÃ§eren": 4307,
      "ĠÃ¶ÄŁrenci": 4308,
      "ĠkÄ±": 4309,
      "emesi": 4310,
      "ĠeÅŁit": 4311,
      "Ġverildi": 4312,
      "diÄŁinde": 4313,
      "ĠÃ¶lÃ§Ã¼": 4314,
      "ĠolduÄŁuna": 4315,
      "Ġharika": 4316,
      "Ġgiden": 4317,
      "Ġgetiren": 4318,
      "ĠsoruÅŁtur": 4319,
      "Ġetkisi": 4320,
      "ain": 4321,
      "IS": 4322,
      "Bil": 4323,
      "ĠYan": 4324,
      "ĠYet": 4325,
      "Ġimza": 4326,
      "âĢĵ": 4327,
      "Ġdeney": 4328,
      "ĠKÄ±s": 4329,
      "indows": 4330,
      "Ġnitelik": 4331,
      "Ġyapabilirsiniz": 4332,
      "Ġdiren": 4333,
      "ĠalÄ±p": 4334,
      "Ġbelediye": 4335,
      "Ġkem": 4336,
      "Etik": 4337,
      "ly": 4338,
      "dev": 4339,
      "ĠdetaylÄ±": 4340,
      "leyici": 4341,
      "Ġkoruy": 4342,
      "ĠbalÄ±k": 4343,
      "Ä±ndÄ±r": 4344,
      "red": 4345,
      "visi": 4346,
      "Ev": 4347,
      "ĠyÃ¶netimi": 4348,
      "madÄ±ÄŁÄ±": 4349,
      "ĠBazÄ±": 4350,
      ".'": 4351,
      "ĠSp": 4352,
      "Ġbazen": 4353,
      "ĠHaf": 4354,
      "ĠSadece": 4355,
      "Ġistih": 4356,
      "ĠbaÄŁlantÄ±": 4357,
      "ary": 4358,
      "Ġkilo": 4359,
      "Ġ2010": 4360,
      "ĠbunlarÄ±": 4361,
      "oÃ§": 4362,
      "Ġtutul": 4363,
      "ond": 4364,
      "100": 4365,
      "baÅŁkan": 4366,
      "Ð°": 4367,
      "amet": 4368,
      "usunu": 4369,
      "ates": 4370,
      "ĠdoÄŁrult": 4371,
      "evk": 4372,
      "MA": 4373,
      "ĠaÅŁÄ±rÄ±": 4374,
      "ĠKÃ¼rt": 4375,
      "leriniz": 4376,
      "urken": 4377,
      "ĠÄ°ÅŁlem": 4378,
      "ASI": 4379,
      "Ä±za": 4380,
      "ĠÃľrÃ¼n": 4381,
      "sit": 4382,
      "ĠMark": 4383,
      "Ä°D": 4384,
      "ĠdoÄŁum": 4385,
      "ĠDakika": 4386,
      "Ã¼mÃ¼ÅŁ": 4387,
      "Ġmeslek": 4388,
      "Ä±lmÄ±ÅŁtÄ±r": 4389,
      "ĠÄ°nternet": 4390,
      "ayÄ±p": 4391,
      "Ġetmesi": 4392,
      "Ġekib": 4393,
      "ĠgÃ¶nÃ¼l": 4394,
      "Ġtas": 4395,
      "ĠEkonom": 4396,
      "Ġkullanmak": 4397,
      "Ä±nar": 4398,
      "lanma": 4399,
      "Ġpark": 4400,
      "ĠdÃ¶nÃ¼ÅŁtÃ¼r": 4401,
      "Ġortadan": 4402,
      "Ġide": 4403,
      "Ä±mÄ±n": 4404,
      "ĠDoÄŁu": 4405,
      "Ġmon": 4406,
      "Ġamel": 4407,
      "Ġsorumlu": 4408,
      "ĠdesteÄŁi": 4409,
      "sÃ¼z": 4410,
      "ĠhatÄ±rlat": 4411,
      "Ġalg": 4412,
      "abilen": 4413,
      "ĠbunlarÄ±n": 4414,
      "Ġkadro": 4415,
      "Ġsermay": 4416,
      "Ġbirinci": 4417,
      "Ġyaparken": 4418,
      "ĠCuma": 4419,
      "Ġfirma": 4420,
      "Mer": 4421,
      "ĠaltÄ±": 4422,
      "Ġcm": 4423,
      "kiler": 4424,
      "Ġalternatif": 4425,
      "LARI": 4426,
      "Ã¼lebilir": 4427,
      "ĠÅŁampiyon": 4428,
      "Ġonlar": 4429,
      "ĠbÃ¼ny": 4430,
      "eceÄŁim": 4431,
      "oj": 4432,
      "ĠinÅŁa": 4433,
      "ABD": 4434,
      "Ġmodern": 4435,
      "ĠkÄ±ÅŁ": 4436,
      "ĠFil": 4437,
      "Ġortalama": 4438,
      "Ġbec": 4439,
      "ĠGalatasaray": 4440,
      "ĠkapalÄ±": 4441,
      "Ġisimli": 4442,
      "cret": 4443,
      "Kon": 4444,
      "ĠoyunlarÄ±": 4445,
      "ĠkaÅŁ": 4446,
      "gÃ¼": 4447,
      "edikleri": 4448,
      "ĠsÄ±f": 4449,
      "isiyle": 4450,
      "ĠKÄ±brÄ±s": 4451,
      "ĠgeÃ§ti": 4452,
      "ĠaracÄ±lÄ±ÄŁÄ±yla": 4453,
      "ĠanlayÄ±ÅŁ": 4454,
      "azartesi": 4455,
      "eÄŁe": 4456,
      "ĠkarÄ±ÅŁtÄ±r": 4457,
      "ĠMet": 4458,
      "deniz": 4459,
      "Ġhaberleri": 4460,
      "ĠbaskÄ±": 4461,
      "ĠÃ§Ä±kÄ±yor": 4462,
      "Hay": 4463,
      "meni": 4464,
      "ĠBuna": 4465,
      "Ġdurdur": 4466,
      "dÄ±rÄ±m": 4467,
      "ĠÅŁehit": 4468,
      "Ġtane": 4469,
      "Es": 4470,
      "Ġbl": 4471,
      "ukat": 4472,
      "ediÄŁimiz": 4473,
      "Ġdiyerek": 4474,
      "Ġez": 4475,
      "nik": 4476,
      "Ġrez": 4477,
      "Ġkendisini": 4478,
      "ĠiÅŁte": 4479,
      "zu": 4480,
      "uzu": 4481,
      "44": 4482,
      "ĠCev": 4483,
      "ĠBÃ¶ylece": 4484,
      "ĠGÃ¼ney": 4485,
      "2017": 4486,
      "55": 4487,
      "ĠyÃ¼rÃ¼y": 4488,
      "ĠyÃ¶netic": 4489,
      "36": 4490,
      "ĠNur": 4491,
      "abrik": 4492,
      "lÄ±klarÄ±": 4493,
      "ĠolmasÄ±nÄ±": 4494,
      "ĠAKP": 4495,
      "ĠRe": 4496,
      "Ġmo": 4497,
      "ity": 4498,
      "ĠFakÃ¼lt": 4499,
      "ĠÃ§ay": 4500,
      "Ġgiren": 4501,
      "Ġbilm": 4502,
      "Ġyakal": 4503,
      "Daha": 4504,
      "ĠGazetesi": 4505,
      "ĠkullanÄ±lÄ±r": 4506,
      "abileceÄŁi": 4507,
      "Ġvit": 4508,
      "ĠdoÄŁrultusunda": 4509,
      "Ã¼mÃ¼zdeki": 4510,
      "ĠÃ¼zerindeki": 4511,
      "ĠtÃ¶ren": 4512,
      "ĠpeÅŁ": 4513,
      "Ġgr": 4514,
      "ĠSh": 4515,
      "kadaÅŁ": 4516,
      "Ġyola": 4517,
      "ĠGÃ¼r": 4518,
      "Ġparti": 4519,
      "ĠÃ§ocuklar": 4520,
      "macÄ±": 4521,
      "ĠayÄ±": 4522,
      "ĠBahis": 4523,
      "uldu": 4524,
      "vik": 4525,
      "Ġkalp": 4526,
      "ĠdaÄŁÄ±t": 4527,
      "Ġfaydalan": 4528,
      "Ġmarka": 4529,
      "Ġkendisi": 4530,
      "Ġmant": 4531,
      "bin": 4532,
      "mesinin": 4533,
      "ese": 4534,
      "ĠistiyorsanÄ±z": 4535,
      "Ã§esi": 4536,
      "ĠâĢ¦": 4537,
      "ĠgeliÅŁim": 4538,
      "iÅŁehir": 4539,
      "LERÄ°": 4540,
      "!!": 4541,
      "ĠmÃ¼ÅŁteriler": 4542,
      "ĠEd": 4543,
      "ĠMobil": 4544,
      "ment": 4545,
      "Ġcen": 4546,
      "ĠFenerbahÃ§e": 4547,
      "Ġonlara": 4548,
      "Ġorada": 4549,
      "arbak": 4550,
      "ĠuygulamasÄ±": 4551,
      "leyin": 4552,
      "ĠBer": 4553,
      "Ġaskeri": 4554,
      "ock": 4555,
      "Ã¶nder": 4556,
      "Ġtepki": 4557,
      "larÄ±mÄ±za": 4558,
      "isa": 4559,
      "ĠMÃ¼slÃ¼man": 4560,
      "ĠNedir": 4561,
      "ĠDair": 4562,
      "ĠdÃ¼zenlen": 4563,
      "ĠYatÄ±rÄ±m": 4564,
      "ĠGerÃ§ek": 4565,
      "Ġsivil": 4566,
      "Ġbet": 4567,
      "ĠalÄ±ndÄ±": 4568,
      "amazan": 4569,
      "ĠBÄ°R": 4570,
      "Ä±ÄŁÄ±n": 4571,
      "alarÄ±ndan": 4572,
      "33": 4573,
      "kek": 4574,
      "Ġduvar": 4575,
      "ĠDest": 4576,
      "Ġihtim": 4577,
      "ĠMev": 4578,
      "ĠyapÄ±m": 4579,
      "liliÄŁ": 4580,
      "ĠÃ§alÄ±ÅŁÄ±yor": 4581,
      "eyecek": 4582,
      "we": 4583,
      "dÃ¼z": 4584,
      "ahmet": 4585,
      "ĠMut": 4586,
      "layÄ±p": 4587,
      "ĠDÃ¼ny": 4588,
      "Ġyapabilir": 4589,
      "ĠDE": 4590,
      "OÄŀ": 4591,
      "ĠyÃ¶nlendir": 4592,
      "ĠÃ¼yesi": 4593,
      "letiÅŁim": 4594,
      "ĠKab": 4595,
      "ĠdÃ¼ÅŁÃ¼nÃ¼yorum": 4596,
      "eytin": 4597,
      "ovid": 4598,
      "Ġolmaya": 4599,
      "ĠkayÄ±p": 4600,
      "Ġedip": 4601,
      "ĠsÃ¶yleyen": 4602,
      "ĠBeÅŁiktaÅŁ": 4603,
      "ĠaÃ§Ä±": 4604,
      "alle": 4605,
      "ĠyeÅŁil": 4606,
      "Ġmilli": 4607,
      "ĠolmaktadÄ±r": 4608,
      "ner": 4609,
      "brahim": 4610,
      "ĠfaktÃ¶r": 4611,
      "irken": 4612,
      "Ġciv": 4613,
      "ĠÃĩek": 4614,
      "ĠÄ°ngiltere": 4615,
      "TÃ¼m": 4616,
      "ĠAmerik": 4617,
      "abilmesi": 4618,
      "bil": 4619,
      "diÄŁim": 4620,
      "ÃľRK": 4621,
      "ĠalmaktadÄ±r": 4622,
      "ĠgÃ¶Ã§": 4623,
      "Ġolmay": 4624,
      "arÄ±m": 4625,
      "ator": 4626,
      "ĠyÄ±ldÄ±z": 4627,
      "ĠÃ¢": 4628,
      "Ġreh": 4629,
      "Ãĸzel": 4630,
      "ĠUluslararasÄ±": 4631,
      "abilmektedir": 4632,
      "mm": 4633,
      "layÄ±cÄ±": 4634,
      "ĠQ": 4635,
      "Ġyor": 4636,
      "Ġ08": 4637,
      "iyatro": 4638,
      "ĠMilletvekili": 4639,
      "ĠeriÅŁim": 4640,
      "Ġx": 4641,
      "mit": 4642,
      "Ġediliyor": 4643,
      "ĠGÃ¼nÃ¼": 4644,
      "ĠOdasÄ±": 4645,
      "ĠgÃ¼ndem": 4646,
      "omb": 4647,
      "ĠÅŁiir": 4648,
      "mut": 4649,
      "pt": 4650,
      "Ġib": 4651,
      "ĠkiÅŁilik": 4652,
      "Ġkitab": 4653,
      "Ġneredeyse": 4654,
      "car": 4655,
      "ĠinÅŁaat": 4656,
      "Ġtehdit": 4657,
      "ĠÃ§oÄŁ": 4658,
      "ĠSaat": 4659,
      "arbakÄ±r": 4660,
      "ĠdÃ¼zenli": 4661,
      "Ġvad": 4662,
      "Ġta": 4663,
      "ĠÃ§Ä±kart": 4664,
      "usuna": 4665,
      "obÃ¼s": 4666,
      "ĠbaÄŁÄ±msÄ±z": 4667,
      "Ġsuyu": 4668,
      "90": 4669,
      "ĠkÃ¶ÅŁ": 4670,
      "ĠdeÄŁeri": 4671,
      "etrol": 4672,
      "Ġrad": 4673,
      "cilik": 4674,
      "Ġbelirtilen": 4675,
      "Ä°z": 4676,
      "ĠPartisi": 4677,
      "Ġyarg": 4678,
      "masÄ±ndan": 4679,
      "ĠdÃ¶viz": 4680,
      "Ġekipleri": 4681,
      "ĠzayÄ±f": 4682,
      "ĠCez": 4683,
      "Ã¶ÄŁr": 4684,
      "ĠÃ¶nceden": 4685,
      "ĠDir": 4686,
      "ĠWeb": 4687,
      "bon": 4688,
      "ĠyÄ±lÄ±n": 4689,
      "iya": 4690,
      "yip": 4691,
      "Ġyeter": 4692,
      "Ġhoc": 4693,
      "ĠMeclis": 4694,
      "ĠÃ¶ngÃ¶r": 4695,
      "ĠFatih": 4696,
      "ÃľK": 4697,
      "Ġred": 4698,
      "Ġbelirlen": 4699,
      "ĠGerek": 4700,
      "Ġkriz": 4701,
      "Ġbakan": 4702,
      "seri": 4703,
      "ĠtÃ¼rk": 4704,
      "ĠolduÄŁumuz": 4705,
      "ĠÄ°srail": 4706,
      "ĠKurum": 4707,
      "Ġiktidar": 4708,
      "ebiliyor": 4709,
      "memiÅŁ": 4710,
      "ĠBaÅŁkanlÄ±ÄŁÄ±": 4711,
      "Ġuyum": 4712,
      "ĠgeliÅŁmeler": 4713,
      "Ġkripto": 4714,
      "EO": 4715,
      "Ġbilir": 4716,
      "ĠGÃ¼zel": 4717,
      "Ġticari": 4718,
      "Ġarab": 4719,
      "ĠbaÄŁlant": 4720,
      "ĠRecep": 4721,
      "iyiz": 4722,
      "ĠFed": 4723,
      "LAN": 4724,
      "ĠOrta": 4725,
      "Ġsiyaset": 4726,
      "Ã¼ndem": 4727,
      "tansiy": 4728,
      "Ġdepr": 4729,
      "34": 4730,
      "Ġdiyen": 4731,
      "ĠdÃ¼ÅŁtÃ¼": 4732,
      "liyat": 4733,
      "ĠÅŀu": 4734,
      "Ġetraf": 4735,
      "otel": 4736,
      "Ġbilgilendir": 4737,
      "Ġgur": 4738,
      "ahtar": 4739,
      "Ġtrafik": 4740,
      "ĠolduÄŁundan": 4741,
      "Ġitir": 4742,
      "Ä±ÅŁtÄ±": 4743,
      "DI": 4744,
      "Ġdenetim": 4745,
      "ert": 4746,
      "ĠBat": 4747,
      "Ġresim": 4748,
      "Ġetkilen": 4749,
      "ĠkÄ±smÄ±": 4750,
      "ĠYunan": 4751,
      "ĠMa": 4752,
      "emize": 4753,
      "UT": 4754,
      "ex": 4755,
      "ĠÃ¼lkede": 4756,
      "ĠtarÄ±m": 4757,
      "ĠayrÄ±l": 4758,
      "ĠSayÄ±n": 4759,
      "Ġcilt": 4760,
      "Ġkapasit": 4761,
      "Ġpil": 4762,
      "oft": 4763,
      "ĠMurat": 4764,
      "ĠmaaÅŁ": 4765,
      "masÄ±yla": 4766,
      "ĠSey": 4767,
      "Ġsenin": 4768,
      "Ġadresi": 4769,
      "out": 4770,
      "ĠPeki": 4771,
      "Ġgetirdi": 4772,
      "ĠsaÄŁlÄ±yor": 4773,
      "MM": 4774,
      "Ġism": 4775,
      "liyet": 4776,
      "luluÄŁ": 4777,
      "anti": 4778,
      "ĠGÃ¼venlik": 4779,
      "ĠlÃ¼tfen": 4780,
      "ĠihtiyacÄ±": 4781,
      "ĠDil": 4782,
      "GeÃ§": 4783,
      "ĠAN": 4784,
      "kol": 4785,
      "ĠTah": 4786,
      "ĠSav": 4787,
      "ular": 4788,
      "Ġdokun": 4789,
      "orta": 4790,
      "ĠhÃ¼kÃ¼met": 4791,
      "antep": 4792,
      "Ġteb": 4793,
      "Ġ35": 4794,
      "ress": 4795,
      "Top": 4796,
      "ĠÄ°m": 4797,
      "ĠÅŁer": 4798,
      "ĠKÄ±lÄ±Ã§": 4799,
      "Ġyerini": 4800,
      "ĠLi": 4801,
      "Ġduyg": 4802,
      "lot": 4803,
      "celi": 4804,
      "Ġsalon": 4805,
      "ĠÃ¶ÄŁret": 4806,
      "âĢľ": 4807,
      "iter": 4808,
      "ĠSab": 4809,
      "ĠFin": 4810,
      "Ġelem": 4811,
      "ĠkiÅŁiye": 4812,
      "ori": 4813,
      "Ä±b": 4814,
      "Ġheyecan": 4815,
      "ĠkÄ±rmÄ±zÄ±": 4816,
      "Ġvergi": 4817,
      "37": 4818,
      "ell": 4819,
      "ĠcÃ¼m": 4820,
      "ĠamacÄ±": 4821,
      "oyu": 4822,
      "Ġeklen": 4823,
      "Ġbinlerce": 4824,
      "amayan": 4825,
      "altÄ±na": 4826,
      "Ġihracat": 4827,
      "ĠPara": 4828,
      "larÄ±ndaki": 4829,
      "ĠdÄ±ÅŁarÄ±": 4830,
      "Ġadr": 4831,
      "dek": 4832,
      "gre": 4833,
      "Â´": 4834,
      "ÄŁur": 4835,
      "demir": 4836,
      "Ġherkesin": 4837,
      "fÄ±": 4838,
      "Ġverecek": 4839,
      "HA": 4840,
      "ĠendiÅŁ": 4841,
      "ĠgeÃ§iÅŁ": 4842,
      "Ġincelem": 4843,
      "ĠÅŀeh": 4844,
      "anÄ±m": 4845,
      "Ġolanlar": 4846,
      "lal": 4847,
      "Ġsahn": 4848,
      "Ġklas": 4849,
      "ĠeÄŁitimi": 4850,
      "ĠacÄ±": 4851,
      "ĠTam": 4852,
      "Ä°lk": 4853,
      "Ġdikkate": 4854,
      "ĠÂ·": 4855,
      "ane": 4856,
      "Bak": 4857,
      "32": 4858,
      "za": 4859,
      "Ġzamanlarda": 4860,
      "Ġbulundur": 4861,
      "ens": 4862,
      "ĠBaÅŁbakan": 4863,
      "ĠMad": 4864,
      "Ġzih": 4865,
      "Ġgrub": 4866,
      "ĠKarÅŁ": 4867,
      "ĠHÃ¼s": 4868,
      "Ġbiliyor": 4869,
      "ĠKÃ¶y": 4870,
      "Ġters": 4871,
      "ÅŁembe": 4872,
      "ĠkÄ±sÄ±t": 4873,
      "haba": 4874,
      "38": 4875,
      "ĠuÄŁraÅŁ": 4876,
      "ĠTat": 4877,
      "ĠseÃ§enekleri": 4878,
      "Ġdes": 4879,
      "ÅŁamba": 4880,
      "ladÄ±m": 4881,
      "Ġmisafir": 4882,
      "lerim": 4883,
      "rop": 4884,
      "ĠrahatsÄ±z": 4885,
      "yÃ¼z": 4886,
      "Ġiade": 4887,
      "fil": 4888,
      "Ġsunuyor": 4889,
      "ĠbÃ¼r": 4890,
      "Ġhasta": 4891,
      "udi": 4892,
      "Ġolmam": 4893,
      "OP": 4894,
      "ĠFacebook": 4895,
      "oya": 4896,
      "tÃ¼rk": 4897,
      "yer": 4898,
      "ĠtanÄ±n": 4899,
      "Ġkahv": 4900,
      "ĠbakÄ±ÅŁ": 4901,
      ".âĢĿ": 4902,
      "ĠAltÄ±n": 4903,
      "YOR": 4904,
      "ĠettiÄŁini": 4905,
      "70": 4906,
      "Ġaktiv": 4907,
      "ĠÅŀehir": 4908,
      "ĠsoÄŁuk": 4909,
      "Ġtelevizyon": 4910,
      "ĠHastanesi": 4911,
      "Etiketler": 4912,
      "ĠðŁ": 4913,
      "ĠOtel": 4914,
      "Ġlezzet": 4915,
      "Ãĩok": 4916,
      "Ġhassas": 4917,
      "Ġnoktada": 4918,
      "Ġsim": 4919,
      "Ø§": 4920,
      "Ġsayede": 4921,
      "ĠvÃ¼cut": 4922,
      "Ġsunan": 4923,
      "Ġifadelerini": 4924,
      "ĠÅŁunlarÄ±": 4925,
      "ĠpaylaÅŁÄ±m": 4926,
      "39": 4927,
      "SK": 4928,
      "Ġgelenek": 4929,
      "EF": 4930,
      "ĠÃ§iÃ§ek": 4931,
      "ÃĸR": 4932,
      "ĠÃ§oÄŁun": 4933,
      "ĠUzun": 4934,
      "tÄ±n": 4935,
      "Ġbirden": 4936,
      "luluÄŁu": 4937,
      "Ġelektronik": 4938,
      "OB": 4939,
      "ĠgÃ¶rdÃ¼ÄŁ": 4940,
      "ĠÃ¶zen": 4941,
      "ETÃĸ": 4942,
      "ĠDÃ¼ÅŁ": 4943,
      "Ġbayram": 4944,
      "uluÄŁ": 4945,
      "ĠYÄ±ldÄ±rÄ±m": 4946,
      "ox": 4947,
      "ĠÄ°k": 4948,
      "Ġgelin": 4949,
      "ĠyÃ¼zyÄ±l": 4950,
      "bey": 4951,
      "Ġilgilen": 4952,
      "Ġrast": 4953,
      "bank": 4954,
      "cisi": 4955,
      "ĠvirÃ¼s": 4956,
      "ĠbaÅŁlÄ±yor": 4957,
      "LU": 4958,
      "ire": 4959,
      "ĠdolaÅŁ": 4960,
      "amÄ±yor": 4961,
      "Ġ00": 4962,
      "Ġatan": 4963,
      "Ġpiyasa": 4964,
      "lardaki": 4965,
      "Ġtad": 4966,
      "ilme": 4967,
      "ĠKiÅŁ": 4968,
      "lerimizin": 4969,
      "omp": 4970,
      "Ġistiyoruz": 4971,
      "ĠyaÅŁÄ±nda": 4972,
      "Ġevet": 4973,
      "ĠKÃ¼Ã§Ã¼k": 4974,
      "Ġ$": 4975,
      "Ġbulunur": 4976,
      "lanmÄ±ÅŁtÄ±r": 4977,
      "ĠHz": 4978,
      "ĠTayyip": 4979,
      "amik": 4980,
      "Ġgiderek": 4981,
      "ĠimkanÄ±": 4982,
      "arÄ±nda": 4983,
      "tuÄŁ": 4984,
      "Ġkanun": 4985,
      "ekil": 4986,
      "land": 4987,
      "ĠdÃ¼ÅŁÃ¼ÅŁ": 4988,
      "ĠBizim": 4989,
      "Ġins": 4990,
      "Ġsorumluluk": 4991,
      "AF": 4992,
      "ĠÃ§erÃ§evesinde": 4993,
      "46": 4994,
      "Ġalak": 4995,
      "aÄŁÄ±n": 4996,
      "baÅŁÄ±": 4997,
      "Ġameliyat": 4998,
      "ĠolacaÄŁÄ±nÄ±": 4999,
      "Ġgenelinde": 5000,
      "ĠiP": 5001,
      "ĠkatÄ±lan": 5002,
      "oin": 5003,
      "Ġoda": 5004,
      "Ġ2009": 5005,
      "Ġpotansiy": 5006,
      "bal": 5007,
      "ĠArap": 5008,
      "Ġdizi": 5009,
      "Ġeve": 5010,
      "ĠSanayi": 5011,
      "ĠTasar": 5012,
      "ĠFakÃ¼ltesi": 5013,
      "oma": 5014,
      "Ġkazanmak": 5015,
      "OT": 5016,
      "ĠZaman": 5017,
      "Ġkomp": 5018,
      "Ġdurumlarda": 5019,
      "emli": 5020,
      "Ġyapma": 5021,
      "ĠÃĸnc": 5022,
      "SaÄŁ": 5023,
      "ĠgÃ¶rsel": 5024,
      "Ġ=": 5025,
      "ĠbÃ¶": 5026,
      "Ġhaz": 5027,
      "uf": 5028,
      "ĠPr": 5029,
      "ĠElektr": 5030,
      "Ġkolayca": 5031,
      "Ġaltyap": 5032,
      "ĠSultan": 5033,
      "Ġvade": 5034,
      "Ã¼yada": 5035,
      "Ġkulak": 5036,
      "ĠkaÃ§Ä±r": 5037,
      "ĠinsanlarÄ±": 5038,
      "pple": 5039,
      "ABER": 5040,
      "ĠtanÄ±": 5041,
      "ave": 5042,
      "Bel": 5043,
      "ĠKitap": 5044,
      "nÃ¼n": 5045,
      "ĠBilgi": 5046,
      "ĠIrak": 5047,
      "DÃ¼nya": 5048,
      "liÄŁinin": 5049,
      "ĠOkul": 5050,
      "Ġistik": 5051,
      "Ġtuz": 5052,
      "Ġbecer": 5053,
      "asÄ±z": 5054,
      "Ġkup": 5055,
      "ĠSÄ±n": 5056,
      "encer": 5057,
      "ahis": 5058,
      "ĠgÃ¶steriyor": 5059,
      "ĠolduÄŁunuz": 5060,
      "ĠbÃ¶lgede": 5061,
      "ĠkÃ¼resel": 5062,
      "ben": 5063,
      "ayÄ±m": 5064,
      "ry": 5065,
      "duÄŁumuz": 5066,
      "ĠolmalÄ±dÄ±r": 5067,
      "ĠolduklarÄ±": 5068,
      "Ġunsur": 5069,
      "Ġistek": 5070,
      "ĠÃ¼yelik": 5071,
      "48": 5072,
      "giler": 5073,
      "ĠGiriÅŁ": 5074,
      "Ġmahkem": 5075,
      "ĠkalÄ±n": 5076,
      "ĠmÃ¼t": 5077,
      "ĠBelediy": 5078,
      "Ġetik": 5079,
      "Ġkurulu": 5080,
      "ĠalÄ±nmasÄ±": 5081,
      "laÅŁma": 5082,
      "ĠHava": 5083,
      "Ġveriler": 5084,
      "ĠtatlÄ±": 5085,
      "ĠYine": 5086,
      "ĠHasan": 5087,
      "ĠtÄ±r": 5088,
      "ĠNew": 5089,
      "enizi": 5090,
      "SS": 5091,
      "ruf": 5092,
      "edek": 5093,
      "ĠvarlÄ±k": 5094,
      "ĠKanunu": 5095,
      "Ġbahset": 5096,
      "esef": 5097,
      "Ġhediye": 5098,
      "ĠgerÃ§ekleÅŁtirilen": 5099,
      "DÄ°": 5100,
      "nu": 5101,
      "BugÃ¼n": 5102,
      "Ġmus": 5103,
      "ĠÅŁiÅŁ": 5104,
      "Ġsana": 5105,
      "kÄ±r": 5106,
      "ĠhÄ±zla": 5107,
      "ĠHakkÄ±nda": 5108,
      "ĠÃ§alÄ±ÅŁmasÄ±": 5109,
      "Ġbozuk": 5110,
      "ect": 5111,
      "Ġkesim": 5112,
      "Ġkendilerine": 5113,
      "ĠyapÄ±lmÄ±ÅŁ": 5114,
      "ĠÃ¶ÄŁretim": 5115,
      "ĠBek": 5116,
      "ĠgÃ¶zlem": 5117,
      "leyerek": 5118,
      "99": 5119,
      "ĠgÃ¶sterir": 5120,
      "Ġkuru": 5121,
      "ĠdÃ¼nyaya": 5122,
      "ledik": 5123,
      "ÅŁey": 5124,
      "ĠbaÅŁkanÄ±": 5125,
      "Ã¼ley": 5126,
      "ĠilÃ§e": 5127,
      "ĠÃ§alÄ±ÅŁtÄ±r": 5128,
      "isiklet": 5129,
      "manÄ±zÄ±": 5130,
      "ĠaÃ§Ä±lÄ±ÅŁ": 5131,
      "Ġbekliyor": 5132,
      "Ġhakim": 5133,
      "ĠPKK": 5134,
      "Ġederken": 5135,
      "Ġbeden": 5136,
      "okul": 5137,
      "Ġsabit": 5138,
      "ĠÃĩaÄŁ": 5139,
      "ÅŁiv": 5140,
      "ĠgÃ¶rÃ¼len": 5141,
      "ĠFransa": 5142,
      "ĠÃĩÄ±k": 5143,
      "lant": 5144,
      "Ġesnaf": 5145,
      "Ġmahk": 5146,
      "ĠgelmiÅŁ": 5147,
      "Kur": 5148,
      "oli": 5149,
      "ĠsaygÄ±": 5150,
      "ĠAdana": 5151,
      "ĠSÄ±r": 5152,
      "Ġgem": 5153,
      "ĠdÃ¼ÅŁman": 5154,
      "emizi": 5155,
      "ĠteÅŁkil": 5156,
      "Ġkus": 5157,
      "lÄ±ÄŁÄ±nÄ±n": 5158,
      "alatya": 5159,
      "ĠMic": 5160,
      "ĠÄ°ki": 5161,
      "ĠÃ¶ncelikle": 5162,
      "ĠCem": 5163,
      "ĠÄ°nÅŁ": 5164,
      "ĠStr": 5165,
      "ĠHep": 5166,
      "Ġkaydetti": 5167,
      "obot": 5168,
      "Ġsaf": 5169,
      "57": 5170,
      "ĠFor": 5171,
      "ĠbÃ¶lgesinde": 5172,
      "str": 5173,
      "iki": 5174,
      "liliÄŁi": 5175,
      "ĠparÃ§asÄ±": 5176,
      "imizden": 5177,
      "ĠvermiÅŁ": 5178,
      "alarla": 5179,
      "oto": 5180,
      "eral": 5181,
      "Ġbeklent": 5182,
      "memek": 5183,
      "ĠBon": 5184,
      "ayarak": 5185,
      "maktan": 5186,
      "Ġsiyah": 5187,
      "ERÄ°": 5188,
      "ĠkavuÅŁ": 5189,
      "Ġalmaya": 5190,
      "Ġkurulan": 5191,
      "Ġsonuna": 5192,
      "ĠMus": 5193,
      "ĠÅŁirketi": 5194,
      "Ġhissed": 5195,
      "ĠMac": 5196,
      "Yap": 5197,
      "andar": 5198,
      "ĠIs": 5199,
      "ĠPazartesi": 5200,
      "ĠkolaylaÅŁ": 5201,
      "In": 5202,
      "Ġ01": 5203,
      "Ġsever": 5204,
      "ĠboÄŁ": 5205,
      "Ġalabilirsiniz": 5206,
      "Ġsebebi": 5207,
      "ĠbÃ¶lge": 5208,
      "ĠÃ¼stÃ¼n": 5209,
      "avuz": 5210,
      "ĠÃ§ocuklarÄ±n": 5211,
      "Ġfi": 5212,
      "ĠdolayÄ±sÄ±yla": 5213,
      "Ġduyar": 5214,
      "mede": 5215,
      "ÃľM": 5216,
      "olog": 5217,
      "Kay": 5218,
      "laj": 5219,
      "ĠHiÃ§": 5220,
      "ĠgÃ¼cÃ¼": 5221,
      "ĠHayat": 5222,
      "Ġmakal": 5223,
      "ĠmaÄŁaz": 5224,
      "ĠTwitter": 5225,
      "ĠÅŁeker": 5226,
      "2016": 5227,
      "Ġbanka": 5228,
      "ciler": 5229,
      "ĠMahkem": 5230,
      "Ġmodelleri": 5231,
      "Ġuzat": 5232,
      "ĠBoy": 5233,
      "ĠgeÃ§tiÄŁimiz": 5234,
      "kÃ¶y": 5235,
      "ĠKara": 5236,
      "ĠAbd": 5237,
      "lardÄ±": 5238,
      "Ġtoplumsal": 5239,
      "47": 5240,
      "Ġves": 5241,
      "Ġordu": 5242,
      "ĠSig": 5243,
      "kiÅŁehir": 5244,
      "Ġsebebiyle": 5245,
      "omet": 5246,
      "Ġzevk": 5247,
      "ĠduruÅŁ": 5248,
      "Ġbeb": 5249,
      "Ġkayded": 5250,
      "ĠhazÄ±rlanan": 5251,
      "dat": 5252,
      "Ġsevk": 5253,
      "ĠBenim": 5254,
      "ĠÄ°brahim": 5255,
      "ĠEmniyet": 5256,
      "49": 5257,
      "urk": 5258,
      "ksiyon": 5259,
      "ĠteÅŁvik": 5260,
      "var": 5261,
      "kon": 5262,
      "aÅŁÄ±k": 5263,
      "Ġbiridir": 5264,
      "ikat": 5265,
      "Ġbelediy": 5266,
      "TR": 5267,
      "leniyor": 5268,
      "Ġbuy": 5269,
      "ĠSonra": 5270,
      "ĠgÃ¶zaltÄ±na": 5271,
      "ĠaÄŁaÃ§": 5272,
      "ÃľL": 5273,
      "ĠoluÅŁturul": 5274,
      "kur": 5275,
      "eÅŁem": 5276,
      "ĠiÅŁler": 5277,
      "Ġmezun": 5278,
      "usunun": 5279,
      "ĠadÄ±nÄ±": 5280,
      "ĠSÃ¼per": 5281,
      "ĠvÃ¼cud": 5282,
      "ĠkÃ¶k": 5283,
      "ĠErz": 5284,
      "rag": 5285,
      "Ġsorgul": 5286,
      "Ġtez": 5287,
      "ĠsÃ¶ylÃ¼yor": 5288,
      "ĠOf": 5289,
      "Gel": 5290,
      "lÄ±dÄ±r": 5291,
      "ediÄŁim": 5292,
      "enkul": 5293,
      "ĠiÅŁlev": 5294,
      "ever": 5295,
      "Ġref": 5296,
      "ĠÃ¼rÃ¼nÃ¼": 5297,
      "ĠTeÅŁ": 5298,
      "ĠtaÅŁÄ±yan": 5299,
      "Ġ2008": 5300,
      "ĠBatÄ±": 5301,
      "Ġdeng": 5302,
      "ĠYen": 5303,
      "kal": 5304,
      "ĠÃ§evre": 5305,
      "ĠtaÅŁÄ±": 5306,
      "sem": 5307,
      "ĠiÃ§indeki": 5308,
      "EZ": 5309,
      "Ġfilmi": 5310,
      "Ġindirim": 5311,
      "ĠAndroid": 5312,
      "ĠâĢ¢": 5313,
      "ĠGÃ¶rÃ¼n": 5314,
      "Ġince": 5315,
      "Ġyerli": 5316,
      "Ġhad": 5317,
      "Yorum": 5318,
      "Ġsuy": 5319,
      "GÃ¼ncel": 5320,
      "imd": 5321,
      "Ġ90": 5322,
      "Ġbr": 5323,
      "sinin": 5324,
      "Ġblog": 5325,
      "CI": 5326,
      "ĠBoz": 5327,
      "ĠCanlÄ±": 5328,
      "Ġtakv": 5329,
      "ĠYok": 5330,
      "Ä±yÄ±z": 5331,
      "TÄ°": 5332,
      "Ġ45": 5333,
      "ĠgÄ±da": 5334,
      "Ġban": 5335,
      "ĠSohbet": 5336,
      "Ġbulmak": 5337,
      "ĠUS": 5338,
      "ĠkartÄ±": 5339,
      "Genel": 5340,
      "adet": 5341,
      "Ġgizli": 5342,
      "omo": 5343,
      "istin": 5344,
      "Ã¢y": 5345,
      "Ġyenil": 5346,
      "tren": 5347,
      "Ġsinyal": 5348,
      "th": 5349,
      "ebilmek": 5350,
      "ĠÃ§aÄŁr": 5351,
      "ĠhesabÄ±": 5352,
      "ĠÃ¶t": 5353,
      "adeniz": 5354,
      "ĠkaynaÄŁÄ±": 5355,
      "ĠtanÄ±ÅŁ": 5356,
      "Ġ80": 5357,
      "UK": 5358,
      "uÄŁu": 5359,
      "ĠEf": 5360,
      "Ġfutbolcu": 5361,
      "Ġitibariyle": 5362,
      "Ġrestor": 5363,
      "Ġfatur": 5364,
      "ĠCumhuriyeti": 5365,
      "Ġfinansal": 5366,
      "On": 5367,
      "amadÄ±": 5368,
      "lÄ±ÄŁÄ±nda": 5369,
      "ĠÃľcret": 5370,
      "ektÃ¶rÃ¼": 5371,
      "Ġsigort": 5372,
      "ĠBunlar": 5373,
      "ĠAj": 5374,
      "amanÄ±n": 5375,
      "Ġport": 5376,
      "ĠbarÄ±ÅŁ": 5377,
      "Ġyatak": 5378,
      "ĠÃĩan": 5379,
      "Ġkapan": 5380,
      "Ġkullanan": 5381,
      "Ä±rlar": 5382,
      "ĠkaÃ§Ä±n": 5383,
      "dÄ±ÄŁÄ±mÄ±z": 5384,
      "Ġdis": 5385,
      "Ġortamda": 5386,
      "CHP": 5387,
      "Ġmuhal": 5388,
      "Tr": 5389,
      "ĠiÃ§eriÄŁ": 5390,
      "Ã¼leyman": 5391,
      "Ã¶rÃ¼": 5392,
      "Ġismi": 5393,
      "Ġarka": 5394,
      "ĠPerÅŁembe": 5395,
      "Ġsakin": 5396,
      "Ġzorunlu": 5397,
      "ĠsÄ±v": 5398,
      "Ä°nsan": 5399,
      "ĠÅŁarkÄ±": 5400,
      "ÃĸN": 5401,
      "Ġkomisyon": 5402,
      "los": 5403,
      "ĠmÃ¼mkÃ¼ndÃ¼r": 5404,
      "ĠKir": 5405,
      "ĠiÅŁin": 5406,
      "anÄ±zÄ±": 5407,
      "ĠgÃ¼Ã§lendir": 5408,
      "ĠÅŀampiyon": 5409,
      "ĠhastalÄ±ÄŁ": 5410,
      "ĠÄ°d": 5411,
      "Ġsahib": 5412,
      "tanÄ±n": 5413,
      "ĠÃĩelik": 5414,
      "erji": 5415,
      "Ġbedel": 5416,
      "Ġturizm": 5417,
      "duklarÄ±": 5418,
      "Ġ198": 5419,
      "Ä°YE": 5420,
      "ĠyÄ±llar": 5421,
      "Uz": 5422,
      "kray": 5423,
      "Ä±yordu": 5424,
      "Ġsitesinde": 5425,
      "lemeye": 5426,
      "ĠLe": 5427,
      "Ġyenilik": 5428,
      "ĠkarÅŁÄ±laÅŁtÄ±r": 5429,
      "Ġorganizasyon": 5430,
      "lamÄ±ÅŁ": 5431,
      "ĠmaÄŁdur": 5432,
      "ĠsorunlarÄ±": 5433,
      "ĠyaÅŁadÄ±ÄŁÄ±": 5434,
      "ĠbÃ¼yÃ¼m": 5435,
      "ordin": 5436,
      "Ġyalan": 5437,
      "âĢ¦]": 5438,
      "tÄ±ÄŁÄ±mÄ±z": 5439,
      "nan": 5440,
      "amin": 5441,
      "ĠÅŁÄ±k": 5442,
      "Ġbenzeri": 5443,
      "ĠMuham": 5444,
      "ĠÃ¼retic": 5445,
      "Ã¼ldÃ¼": 5446,
      "ĠMÃ¼ÅŁter": 5447,
      "TI": 5448,
      "Ã¼lmesi": 5449,
      "TA": 5450,
      "akkale": 5451,
      "ĠÃĩarÅŁamba": 5452,
      "ĠDolayÄ±sÄ±yla": 5453,
      "Ġmetre": 5454,
      "EÄŁer": 5455,
      "DEN": 5456,
      "Ġkoruma": 5457,
      "yol": 5458,
      "ĠHatta": 5459,
      "ĠKuzey": 5460,
      "sul": 5461,
      "ĠVan": 5462,
      "ĠÃ¼yeleri": 5463,
      "ĠaÃ§Ä±lan": 5464,
      "ĠÅŁaÅŁÄ±r": 5465,
      "ĠKart": 5466,
      "ĠYal": 5467,
      "adÄ±klarÄ±": 5468,
      "Ġyetenek": 5469,
      "ĠdeÄŁin": 5470,
      "mesinde": 5471,
      "ĠgÃ¼ndeme": 5472,
      "ĠkonuÅŁan": 5473,
      "ĠkadÄ±nlar": 5474,
      "Ġ70": 5475,
      "ĠYAP": 5476,
      "Ġprojesi": 5477,
      "manlÄ±k": 5478,
      "Ġdenet": 5479,
      "Ġdemektir": 5480,
      "Ġren": 5481,
      "Oy": 5482,
      "ĠgÃ¶rÃ¼nÃ¼m": 5483,
      "ĠyapmanÄ±z": 5484,
      "ĠyaÅŁat": 5485,
      "ĠsÃ¼ren": 5486,
      "Ã¼bÃ¼": 5487,
      "Ġaram": 5488,
      "Ã¶ÄŁretim": 5489,
      "adÄ±n": 5490,
      "mesiyle": 5491,
      "ĠKonya": 5492,
      "ĠÃ¶y": 5493,
      "ĠolmalÄ±": 5494,
      "Ġkaps": 5495,
      "Ġvadeli": 5496,
      "ĠHes": 5497,
      "ĠHast": 5498,
      "ĠgeldiÄŁi": 5499,
      "Ġyoluyla": 5500,
      "ĠPiyas": 5501,
      "LIK": 5502,
      "Ġvs": 5503,
      "Ġcinsel": 5504,
      "arik": 5505,
      "eya": 5506,
      "Ġnamaz": 5507,
      "ĠsÃ¼reÃ§te": 5508,
      "ĠÄ°Ãĩ": 5509,
      "irler": 5510,
      "ĠHukuk": 5511,
      "ĠBAÅŀ": 5512,
      "UZ": 5513,
      "Ġtakdirde": 5514,
      "ĠBirleÅŁ": 5515,
      "ĠbilinÃ§": 5516,
      "Ġmaddi": 5517,
      "ĠuyarÄ±": 5518,
      "Ġrezerv": 5519,
      "Ġrakip": 5520,
      "ĠKer": 5521,
      "ĠAc": 5522,
      "ĠbÃ¶lÃ¼mÃ¼": 5523,
      "ĠPort": 5524,
      "Ġgrafik": 5525,
      "ĠHÃ¼seyin": 5526,
      "lasyon": 5527,
      "ĠiliÅŁkiler": 5528,
      "Ġhepsi": 5529,
      "ĠEx": 5530,
      "56": 5531,
      "ĠNak": 5532,
      "duÄŁunuz": 5533,
      "ĠyÃ¶ntemi": 5534,
      "Ġzir": 5535,
      "ĠhaklarÄ±": 5536,
      "Ġbesin": 5537,
      "Ãĸnc": 5538,
      "ump": 5539,
      "org": 5540,
      "malarÄ±nÄ±": 5541,
      "ami": 5542,
      "ĠSek": 5543,
      "ill": 5544,
      "anlarÄ±": 5545,
      "Ġetki": 5546,
      "anlÄ±k": 5547,
      "osya": 5548,
      "Ġgitti": 5549,
      "ĠyÃ¼kselt": 5550,
      "Ġfer": 5551,
      "ĠhayatÄ±": 5552,
      "Ġsorunun": 5553,
      "Ġdemir": 5554,
      "lastik": 5555,
      "Ġakadem": 5556,
      "Ankara": 5557,
      "Ġiken": 5558,
      "ĠÃĸmer": 5559,
      "daa": 5560,
      "Ġedebil": 5561,
      "lamaya": 5562,
      "Ġkendilerini": 5563,
      "BaÅŁk": 5564,
      "ĠbirleÅŁtir": 5565,
      "ĠmaÃ§Ä±": 5566,
      "ĠMey": 5567,
      "ĠWindows": 5568,
      "Ġanti": 5569,
      "Ġumut": 5570,
      "San": 5571,
      "Ġbors": 5572,
      "ĠbÃ¶ylece": 5573,
      "ĠdÃ¼ÅŁÃ¼nÃ¼yor": 5574,
      "ĠmÃ¼l": 5575,
      "Ġbuz": 5576,
      "ĠCen": 5577,
      "Ġtoplu": 5578,
      "ĠYas": 5579,
      "ĠÅŁef": 5580,
      "Ġsanal": 5581,
      "TE": 5582,
      "dÄ±ÄŁÄ±nÄ±z": 5583,
      "ome": 5584,
      "ĠhazÄ±rlÄ±k": 5585,
      "ĠiÅŁÃ§i": 5586,
      "ĠBilim": 5587,
      "ĠbaÅŁlangÄ±Ã§": 5588,
      "ĠDestek": 5589,
      "Ġkamp": 5590,
      "Ġedilebilir": 5591,
      "ĠaÃ§Ä±dan": 5592,
      "ĠyaklaÅŁÄ±m": 5593,
      "ĠistediÄŁi": 5594,
      "ĠÅŁehr": 5595,
      "ĠkÄ±ymet": 5596,
      "ĠBÃ¼tÃ¼n": 5597,
      "ĠdÃ¶nÃ¼ÅŁÃ¼m": 5598,
      "ĠSalÄ±": 5599,
      "ĠbakÄ±mÄ±ndan": 5600,
      "ĠYÄ±ldÄ±z": 5601,
      "ĠyaÅŁay": 5602,
      "ĠKAR": 5603,
      "Ġistif": 5604,
      "Ġoynan": 5605,
      "ĠEski": 5606,
      "Ġhasar": 5607,
      "ĠÃ¼lkemizde": 5608,
      "ĠÃ¶lÃ§Ã¼de": 5609
    },
    "merges": [
      [
        "Ä",
        "±"
      ],
      [
        "a",
        "r"
      ],
      [
        "e",
        "r"
      ],
      [
        "Ã",
        "¼"
      ],
      [
        "a",
        "n"
      ],
      [
        "i",
        "n"
      ],
      [
        "Å",
        "Ł"
      ],
      [
        "Ġ",
        "b"
      ],
      [
        "e",
        "n"
      ],
      [
        "Ä±",
        "n"
      ],
      [
        "i",
        "l"
      ],
      [
        "i",
        "r"
      ],
      [
        "Ä",
        "Ł"
      ],
      [
        "Ã",
        "§"
      ],
      [
        "Ġ",
        "k"
      ],
      [
        "Ġ",
        "d"
      ],
      [
        "Ġ",
        "s"
      ],
      [
        "a",
        "l"
      ],
      [
        "Ġ",
        "y"
      ],
      [
        "a",
        "k"
      ],
      [
        "l",
        "ar"
      ],
      [
        "e",
        "l"
      ],
      [
        "Ġ",
        "g"
      ],
      [
        "e",
        "k"
      ],
      [
        "Ã",
        "¶"
      ],
      [
        "Ġ",
        "o"
      ],
      [
        "Ġ",
        "v"
      ],
      [
        "e",
        "t"
      ],
      [
        "a",
        "y"
      ],
      [
        "Ġ",
        "t"
      ],
      [
        "Ġ",
        "i"
      ],
      [
        "a",
        "s"
      ],
      [
        "a",
        "m"
      ],
      [
        "u",
        "n"
      ],
      [
        "l",
        "er"
      ],
      [
        "d",
        "e"
      ],
      [
        "o",
        "r"
      ],
      [
        "a",
        "t"
      ],
      [
        "d",
        "a"
      ],
      [
        "e",
        "s"
      ],
      [
        "Ġ",
        "h"
      ],
      [
        "i",
        "y"
      ],
      [
        "Ġv",
        "e"
      ],
      [
        "i",
        "z"
      ],
      [
        "o",
        "n"
      ],
      [
        "e",
        "m"
      ],
      [
        "i",
        "m"
      ],
      [
        "i",
        "k"
      ],
      [
        "Ä±",
        "r"
      ],
      [
        "Ġb",
        "ir"
      ],
      [
        "Ġ",
        "m"
      ],
      [
        "u",
        "r"
      ],
      [
        "a",
        "ÅŁ"
      ],
      [
        "Ġo",
        "l"
      ],
      [
        "Ġ",
        "B"
      ],
      [
        "e",
        "d"
      ],
      [
        "u",
        "l"
      ],
      [
        "Ä±",
        "l"
      ],
      [
        "a",
        "d"
      ],
      [
        "Ã¼",
        "n"
      ],
      [
        "Ġ",
        "Ã§"
      ],
      [
        "Ä±",
        "k"
      ],
      [
        "i",
        "s"
      ],
      [
        "Ġ",
        "A"
      ],
      [
        "Ã¼",
        "r"
      ],
      [
        "Ä",
        "°"
      ],
      [
        "a",
        "z"
      ],
      [
        "Ä±",
        "m"
      ],
      [
        "a",
        "p"
      ],
      [
        "l",
        "e"
      ],
      [
        "a",
        "h"
      ],
      [
        "a",
        "b"
      ],
      [
        "i",
        "t"
      ],
      [
        "Ġ",
        "K"
      ],
      [
        "i",
        "ÅŁ"
      ],
      [
        "Ġ",
        "S"
      ],
      [
        "u",
        "m"
      ],
      [
        "Ä±",
        "ÅŁ"
      ],
      [
        "e",
        "y"
      ],
      [
        "Ä±",
        "z"
      ],
      [
        "Ġ",
        "p"
      ],
      [
        "Ġ",
        "Ã¶"
      ],
      [
        "Ġ",
        "il"
      ],
      [
        "Ġd",
        "e"
      ],
      [
        "Ġ",
        "T"
      ],
      [
        "a",
        "ÄŁ"
      ],
      [
        "l",
        "i"
      ],
      [
        "o",
        "l"
      ],
      [
        "Ġ",
        "M"
      ],
      [
        "Ġi",
        "Ã§"
      ],
      [
        "Ġ",
        "f"
      ],
      [
        "a",
        "c"
      ],
      [
        "l",
        "an"
      ],
      [
        "lar",
        "Ä±n"
      ],
      [
        "Ġ",
        "al"
      ],
      [
        "s",
        "t"
      ],
      [
        "o",
        "k"
      ],
      [
        "l",
        "Ä±"
      ],
      [
        "Ġg",
        "Ã¶"
      ],
      [
        "Ã¼",
        "z"
      ],
      [
        "d",
        "an"
      ],
      [
        "Ä±n",
        "da"
      ],
      [
        "in",
        "i"
      ],
      [
        "Ġ",
        "ÅŁ"
      ],
      [
        "Ġ",
        "n"
      ],
      [
        "Ġ",
        "D"
      ],
      [
        "Ġy",
        "ap"
      ],
      [
        "ĠiÃ§",
        "in"
      ],
      [
        "d",
        "i"
      ],
      [
        "e",
        "v"
      ],
      [
        "as",
        "Ä±"
      ],
      [
        "Ġ",
        "ar"
      ],
      [
        "lar",
        "Ä±"
      ],
      [
        "e",
        "c"
      ],
      [
        "in",
        "e"
      ],
      [
        "d",
        "u"
      ],
      [
        "Ġ",
        "2"
      ],
      [
        "l",
        "a"
      ],
      [
        "Ġ",
        "E"
      ],
      [
        "Ġ",
        "H"
      ],
      [
        "Ġ",
        "Ä°"
      ],
      [
        "es",
        "i"
      ],
      [
        "Ġ",
        "1"
      ],
      [
        "Ġ",
        "Ã"
      ],
      [
        "Ġ",
        "G"
      ],
      [
        "Ã¼",
        "k"
      ],
      [
        "in",
        "de"
      ],
      [
        "d",
        "en"
      ],
      [
        "u",
        "y"
      ],
      [
        "u",
        "z"
      ],
      [
        "Ġ",
        "Y"
      ],
      [
        "ler",
        "i"
      ],
      [
        "a",
        "Ã§"
      ],
      [
        "Ġb",
        "u"
      ],
      [
        "Ä±",
        "ÄŁ"
      ],
      [
        "el",
        "er"
      ],
      [
        "il",
        "er"
      ],
      [
        "Ä±",
        "y"
      ],
      [
        "al",
        "ar"
      ],
      [
        "t",
        "i"
      ],
      [
        "Ã¼",
        "m"
      ],
      [
        "â",
        "Ģ"
      ],
      [
        "Ġd",
        "a"
      ],
      [
        "a",
        "f"
      ],
      [
        "iy",
        "or"
      ],
      [
        "Ä±n",
        "Ä±"
      ],
      [
        "Ġil",
        "e"
      ],
      [
        "m",
        "ak"
      ],
      [
        "Ġ",
        "z"
      ],
      [
        "y",
        "a"
      ],
      [
        "e",
        "ÄŁ"
      ],
      [
        "Ġ",
        "P"
      ],
      [
        "il",
        "ir"
      ],
      [
        "Ġ",
        "et"
      ],
      [
        "Ġ",
        "r"
      ],
      [
        "Ġ",
        "ed"
      ],
      [
        "Ä±",
        "s"
      ],
      [
        "u",
        "t"
      ],
      [
        "ĠgÃ¶",
        "r"
      ],
      [
        "in",
        "in"
      ],
      [
        "Ġb",
        "aÅŁ"
      ],
      [
        "Ã¼",
        "l"
      ],
      [
        "d",
        "ir"
      ],
      [
        "l",
        "ik"
      ],
      [
        "m",
        "a"
      ],
      [
        "u",
        "ÅŁ"
      ],
      [
        "o",
        "ÄŁ"
      ],
      [
        "a",
        "v"
      ],
      [
        "e",
        "b"
      ],
      [
        "e",
        "Ã§"
      ],
      [
        "Ġ",
        "an"
      ],
      [
        "in",
        "iz"
      ],
      [
        "l",
        "am"
      ],
      [
        "iy",
        "e"
      ],
      [
        "u",
        "s"
      ],
      [
        "Ġg",
        "er"
      ],
      [
        "Ġ",
        "c"
      ],
      [
        "Ġv",
        "er"
      ],
      [
        "t",
        "ir"
      ],
      [
        "Ã¶",
        "n"
      ],
      [
        "Ġk",
        "ar"
      ],
      [
        "ĠÃ¶",
        "n"
      ],
      [
        "e",
        "z"
      ],
      [
        "Ġg",
        "el"
      ],
      [
        "Ġs",
        "on"
      ],
      [
        "Ä±n",
        "a"
      ],
      [
        "m",
        "ek"
      ],
      [
        "d",
        "Ä±r"
      ],
      [
        "Ġ",
        "O"
      ],
      [
        ".",
        "."
      ],
      [
        "u",
        "k"
      ],
      [
        "Ã¼",
        "y"
      ],
      [
        "'",
        "d"
      ],
      [
        "lar",
        "ak"
      ],
      [
        "Ã¼",
        "ÅŁ"
      ],
      [
        "Ġb",
        "il"
      ],
      [
        "i",
        "p"
      ],
      [
        "l",
        "en"
      ],
      [
        "Ġol",
        "du"
      ],
      [
        "Ġi",
        "ÅŁ"
      ],
      [
        "Ġ",
        "F"
      ],
      [
        "Ġ2",
        "0"
      ],
      [
        "Ġo",
        "larak"
      ],
      [
        "e",
        "ÅŁ"
      ],
      [
        "o",
        "m"
      ],
      [
        "Ġ",
        "en"
      ],
      [
        "Ġk",
        "on"
      ],
      [
        "l",
        "em"
      ],
      [
        "c",
        "e"
      ],
      [
        "Ġ",
        "in"
      ],
      [
        "Ġ",
        "C"
      ],
      [
        "i",
        "b"
      ],
      [
        "t",
        "Ä±r"
      ],
      [
        "r",
        "o"
      ],
      [
        "i",
        "ÄŁ"
      ],
      [
        "Ġ",
        "ay"
      ],
      [
        "t",
        "a"
      ],
      [
        "Å",
        "ŀ"
      ],
      [
        "Ġt",
        "ar"
      ],
      [
        "Ġde",
        "ÄŁ"
      ],
      [
        "ac",
        "ak"
      ],
      [
        "Ä±n",
        "dan"
      ],
      [
        "t",
        "e"
      ],
      [
        "Ġ",
        "("
      ],
      [
        "ay",
        "a"
      ],
      [
        "l",
        "Ä±k"
      ],
      [
        "Ġ",
        "\""
      ],
      [
        "an",
        "Ä±"
      ],
      [
        "Ġk",
        "ul"
      ],
      [
        "Ġb",
        "ul"
      ],
      [
        "il",
        "m"
      ],
      [
        "Ġol",
        "m"
      ],
      [
        "ah",
        "a"
      ],
      [
        "ĠÃ§",
        "ok"
      ],
      [
        "Ġol",
        "an"
      ],
      [
        "Ä±y",
        "or"
      ],
      [
        "Ã¼r",
        "k"
      ],
      [
        "Ġy",
        "er"
      ],
      [
        "d",
        "Ä±"
      ],
      [
        "Ġkul",
        "lan"
      ],
      [
        "o",
        "p"
      ],
      [
        "s",
        "e"
      ],
      [
        "ay",
        "Ä±"
      ],
      [
        "Ġ",
        "aÃ§"
      ],
      [
        "un",
        "u"
      ],
      [
        "m",
        "an"
      ],
      [
        "im",
        "iz"
      ],
      [
        "ĠB",
        "u"
      ],
      [
        "Ä±ÄŁ",
        "Ä±"
      ],
      [
        "Ġo",
        "r"
      ],
      [
        "t",
        "an"
      ],
      [
        "Ã¶",
        "r"
      ],
      [
        "l",
        "u"
      ],
      [
        "y",
        "on"
      ],
      [
        "en",
        "i"
      ],
      [
        "Ä±n",
        "Ä±n"
      ],
      [
        "i",
        "h"
      ],
      [
        "Ġ",
        "N"
      ],
      [
        "e",
        "de"
      ],
      [
        "t",
        "Ä±"
      ],
      [
        "Ġk",
        "al"
      ],
      [
        "ĠÃ",
        "ĩ"
      ],
      [
        "Ġi",
        "st"
      ],
      [
        "Ġg",
        "Ã¼n"
      ],
      [
        "i",
        "c"
      ],
      [
        "Ġd",
        "aha"
      ],
      [
        "Ġs",
        "Ã¼r"
      ],
      [
        "Ġ",
        "ad"
      ],
      [
        "ib",
        "i"
      ],
      [
        "Ã¶",
        "y"
      ],
      [
        "Ġy",
        "Ä±l"
      ],
      [
        "Ġk",
        "ad"
      ],
      [
        "ar",
        "k"
      ],
      [
        "Ġoldu",
        "ÄŁ"
      ],
      [
        "al",
        "Ä±ÅŁ"
      ],
      [
        "ÄŁ",
        "i"
      ],
      [
        "Ġ",
        "R"
      ],
      [
        "Ġk",
        "ur"
      ],
      [
        "ak",
        "i"
      ],
      [
        "Ġh",
        "er"
      ],
      [
        "Ġ",
        "uy"
      ],
      [
        "is",
        "i"
      ],
      [
        "m",
        "e"
      ],
      [
        "am",
        "an"
      ],
      [
        "ec",
        "ek"
      ],
      [
        "Ġb",
        "el"
      ],
      [
        "a",
        "da"
      ],
      [
        "Ġv",
        "ar"
      ],
      [
        "in",
        "den"
      ],
      [
        "c",
        "Ä±"
      ],
      [
        "ab",
        "ilir"
      ],
      [
        "m",
        "asÄ±"
      ],
      [
        "ek",
        "i"
      ],
      [
        "r",
        "a"
      ],
      [
        "ĠÃ§",
        "alÄ±ÅŁ"
      ],
      [
        "t",
        "er"
      ],
      [
        "o",
        "s"
      ],
      [
        "Ġg",
        "eÃ§"
      ],
      [
        "c",
        "a"
      ],
      [
        "ĠÃ§",
        "Ä±k"
      ],
      [
        "m",
        "Ä±ÅŁ"
      ],
      [
        "0",
        "0"
      ],
      [
        "Ä±m",
        "Ä±z"
      ],
      [
        "Ġy",
        "aÅŁ"
      ],
      [
        "s",
        "an"
      ],
      [
        "ed",
        "en"
      ],
      [
        "Ġ",
        "-"
      ],
      [
        "Ġy",
        "ar"
      ],
      [
        "k",
        "i"
      ],
      [
        "ĠÃ",
        "ĸ"
      ],
      [
        "Ġ",
        "V"
      ],
      [
        "Ġger",
        "ek"
      ],
      [
        "Ġg",
        "ibi"
      ],
      [
        "il",
        "en"
      ],
      [
        "e",
        "h"
      ],
      [
        "Ġ",
        "Ã¼z"
      ],
      [
        "al",
        "Ä±"
      ],
      [
        "il",
        "i"
      ],
      [
        "Ä±n",
        "Ä±z"
      ],
      [
        "Ġs",
        "aÄŁ"
      ],
      [
        "ĠT",
        "Ã¼rk"
      ],
      [
        "âĢ",
        "Ļ"
      ],
      [
        "ay",
        "an"
      ],
      [
        "Ġ",
        "3"
      ],
      [
        "is",
        "t"
      ],
      [
        "le",
        "ÅŁ"
      ],
      [
        "e",
        "p"
      ],
      [
        "am",
        "a"
      ],
      [
        "Ġbul",
        "un"
      ],
      [
        "m",
        "et"
      ],
      [
        "Ġ",
        "ek"
      ],
      [
        "ĠÃ¼z",
        "er"
      ],
      [
        "as",
        "Ä±nda"
      ],
      [
        "Ġyap",
        "Ä±l"
      ],
      [
        "Ġk",
        "en"
      ],
      [
        "l",
        "aÅŁ"
      ],
      [
        "k",
        "en"
      ],
      [
        "Ġ",
        "Åŀ"
      ],
      [
        "an",
        "s"
      ],
      [
        "Ġ",
        "el"
      ],
      [
        "Ã¶",
        "z"
      ],
      [
        "l",
        "et"
      ],
      [
        "ÄŁ",
        "r"
      ],
      [
        "el",
        "i"
      ],
      [
        "Ġ20",
        "1"
      ],
      [
        "ĠÃ¶",
        "z"
      ],
      [
        "iy",
        "et"
      ],
      [
        "Ã¼",
        "t"
      ],
      [
        "ey",
        "e"
      ],
      [
        "r",
        "u"
      ],
      [
        "g",
        "i"
      ],
      [
        "Ġo",
        "y"
      ],
      [
        "i",
        "d"
      ],
      [
        "er",
        "s"
      ],
      [
        "Ġy",
        "Ã¶n"
      ],
      [
        "un",
        "da"
      ],
      [
        "Ġz",
        "aman"
      ],
      [
        "ler",
        "in"
      ],
      [
        "iy",
        "le"
      ],
      [
        "Ġp",
        "ar"
      ],
      [
        "o",
        "y"
      ],
      [
        "Ġs",
        "or"
      ],
      [
        "o",
        "t"
      ],
      [
        "Ġ",
        "L"
      ],
      [
        "ed",
        "i"
      ],
      [
        "a",
        "de"
      ],
      [
        "ed",
        "ir"
      ],
      [
        "l",
        "Ã¼"
      ],
      [
        "t",
        "r"
      ],
      [
        "s",
        "a"
      ],
      [
        "m",
        "iÅŁ"
      ],
      [
        "Ġo",
        "n"
      ],
      [
        "t",
        "ur"
      ],
      [
        "2",
        "0"
      ],
      [
        "Ġkad",
        "ar"
      ],
      [
        "Ġ",
        "l"
      ],
      [
        "Ã¼",
        "c"
      ],
      [
        "Ġd",
        "Ã¼ÅŁ"
      ],
      [
        "ĠA",
        "n"
      ],
      [
        "lÄ±",
        "ÄŁ"
      ],
      [
        "Ġd",
        "ur"
      ],
      [
        "i",
        "f"
      ],
      [
        "ab",
        "er"
      ],
      [
        "e",
        "f"
      ],
      [
        "aÅŁ",
        "k"
      ],
      [
        "Ġt",
        "ek"
      ],
      [
        "Ġkar",
        "ÅŁ"
      ],
      [
        "Ġde",
        "v"
      ],
      [
        "Ã¼y",
        "Ã¼k"
      ],
      [
        "lar",
        "a"
      ],
      [
        "ar",
        "ak"
      ],
      [
        "es",
        "t"
      ],
      [
        "Ġp",
        "ro"
      ],
      [
        "Ġy",
        "az"
      ],
      [
        "d",
        "aki"
      ],
      [
        "Ġ",
        "U"
      ],
      [
        "Ġtar",
        "af"
      ],
      [
        "Ã§",
        "ek"
      ],
      [
        "Ã¶",
        "l"
      ],
      [
        "ĠÅŁ",
        "ek"
      ],
      [
        "Ġs",
        "ah"
      ],
      [
        "larÄ±n",
        "Ä±"
      ],
      [
        "Ġuy",
        "g"
      ],
      [
        "Ġ",
        "Ã¼r"
      ],
      [
        "Ġ",
        "ak"
      ],
      [
        "ac",
        "aÄŁ"
      ],
      [
        "Ġh",
        "al"
      ],
      [
        "c",
        "ak"
      ],
      [
        "ar",
        "t"
      ],
      [
        "un",
        "un"
      ],
      [
        "y",
        "i"
      ],
      [
        "s",
        "iniz"
      ],
      [
        "er",
        "i"
      ],
      [
        "Ã",
        "ľ"
      ],
      [
        "Ġt",
        "op"
      ],
      [
        "o",
        "c"
      ],
      [
        "Ġs",
        "ay"
      ],
      [
        "Ġk",
        "at"
      ],
      [
        "Ġd",
        "oÄŁ"
      ],
      [
        "m",
        "en"
      ],
      [
        "..",
        "."
      ],
      [
        "ec",
        "eÄŁ"
      ],
      [
        "im",
        "i"
      ],
      [
        "Ġbel",
        "ir"
      ],
      [
        "Ġk",
        "ay"
      ],
      [
        "n",
        "in"
      ],
      [
        "t",
        "ad"
      ],
      [
        "Ġd",
        "Ã¶n"
      ],
      [
        "Ġk",
        "ap"
      ],
      [
        "m",
        "alar"
      ],
      [
        "Ã",
        "¢"
      ],
      [
        "Ġi",
        "se"
      ],
      [
        "Ã¼",
        "Ã§"
      ],
      [
        "ab",
        "il"
      ],
      [
        "le",
        "y"
      ],
      [
        "Ġ",
        "âĢ"
      ],
      [
        "Ġy",
        "an"
      ],
      [
        "Ġson",
        "ra"
      ],
      [
        "ler",
        "ini"
      ],
      [
        "Ġh",
        "ak"
      ],
      [
        "iy",
        "at"
      ],
      [
        "l",
        "at"
      ],
      [
        "or",
        "um"
      ],
      [
        "Ġy",
        "eni"
      ],
      [
        "eler",
        "i"
      ],
      [
        "Ã¼",
        "s"
      ],
      [
        "er",
        "k"
      ],
      [
        "er",
        "ek"
      ],
      [
        "ĠA",
        "r"
      ],
      [
        "Ġk",
        "iÅŁ"
      ],
      [
        "ar",
        "Ä±"
      ],
      [
        "l",
        "ad"
      ],
      [
        "t",
        "en"
      ],
      [
        "Ġ",
        "5"
      ],
      [
        "m",
        "as"
      ],
      [
        "Ġve",
        "ya"
      ],
      [
        "Ġy",
        "ak"
      ],
      [
        "el",
        "ik"
      ],
      [
        "Ġal",
        "an"
      ],
      [
        "Ġh",
        "ay"
      ],
      [
        "ĠÃ",
        "ľ"
      ],
      [
        "Ġ",
        "4"
      ],
      [
        "Ġt",
        "ak"
      ],
      [
        "ĠÃ¶z",
        "el"
      ],
      [
        "Ġ",
        "at"
      ],
      [
        "l",
        "ay"
      ],
      [
        "ĠaÃ§",
        "Ä±k"
      ],
      [
        "Ä±s",
        "Ä±"
      ],
      [
        "es",
        "inde"
      ],
      [
        "d",
        "eki"
      ],
      [
        "s",
        "el"
      ],
      [
        "Ġy",
        "ol"
      ],
      [
        "d",
        "Ã¼r"
      ],
      [
        "Ġg",
        "ir"
      ],
      [
        "r",
        "am"
      ],
      [
        "Ġ",
        "ev"
      ],
      [
        "Ġs",
        "iz"
      ],
      [
        "Ġger",
        "Ã§ek"
      ],
      [
        "c",
        "u"
      ],
      [
        "uy",
        "or"
      ],
      [
        "lar",
        "da"
      ],
      [
        "Ġb",
        "Ã¼yÃ¼k"
      ],
      [
        "k",
        "in"
      ],
      [
        "il",
        "di"
      ],
      [
        "st",
        "er"
      ],
      [
        "i",
        "v"
      ],
      [
        "ĠÃ¶n",
        "em"
      ],
      [
        "Ġy",
        "Ã¼k"
      ],
      [
        "tad",
        "Ä±r"
      ],
      [
        "i",
        "Ã§"
      ],
      [
        "Ġn",
        "e"
      ],
      [
        "u",
        "Ã§"
      ],
      [
        "Ġor",
        "t"
      ],
      [
        "t",
        "edir"
      ],
      [
        "ĠA",
        "l"
      ],
      [
        "ĠÃ¶",
        "ÄŁr"
      ],
      [
        "Ġ",
        "uz"
      ],
      [
        "iz",
        "met"
      ],
      [
        "Ġg",
        "en"
      ],
      [
        "Ġd",
        "Ã¼z"
      ],
      [
        "Ġs",
        "ev"
      ],
      [
        "as",
        "yon"
      ],
      [
        "ĠTÃ¼rk",
        "iye"
      ],
      [
        "Ġy",
        "Ã¼z"
      ],
      [
        "ler",
        "e"
      ],
      [
        "Ġd",
        "en"
      ],
      [
        "o",
        "d"
      ],
      [
        "ĠÅŁek",
        "il"
      ],
      [
        "Ġs",
        "it"
      ],
      [
        "eb",
        "ilir"
      ],
      [
        "Ġil",
        "g"
      ],
      [
        "at",
        "Ä±r"
      ],
      [
        "Ġdur",
        "um"
      ],
      [
        "Ä±l",
        "an"
      ],
      [
        "Ġb",
        "en"
      ],
      [
        "Ġk",
        "az"
      ],
      [
        "un",
        "a"
      ],
      [
        "ar",
        "et"
      ],
      [
        "Ġs",
        "eÃ§"
      ],
      [
        "Ġtaraf",
        "Ä±ndan"
      ],
      [
        "ĠdeÄŁ",
        "il"
      ],
      [
        "v",
        "en"
      ],
      [
        "iÅŁ",
        "tir"
      ],
      [
        "ed",
        "iÄŁ"
      ],
      [
        "Ġt",
        "em"
      ],
      [
        "Ġb",
        "ak"
      ],
      [
        "a",
        "at"
      ],
      [
        "ĠB",
        "ir"
      ],
      [
        "Ġh",
        "em"
      ],
      [
        "Ġin",
        "san"
      ],
      [
        "ĠB",
        "aÅŁk"
      ],
      [
        "Ġ",
        "es"
      ],
      [
        "Ġf",
        "ark"
      ],
      [
        "h",
        "t"
      ],
      [
        "Ġi",
        "yi"
      ],
      [
        "Ġil",
        "k"
      ],
      [
        "Ä±y",
        "la"
      ],
      [
        "Ġb",
        "aÄŁ"
      ],
      [
        "E",
        "R"
      ],
      [
        "ÄŁ",
        "u"
      ],
      [
        "ĠgÃ¶",
        "ster"
      ],
      [
        "Ġken",
        "d"
      ],
      [
        "d",
        "Ä±m"
      ],
      [
        "Ġ",
        "I"
      ],
      [
        "c",
        "i"
      ],
      [
        "mek",
        "tedir"
      ],
      [
        "o",
        "z"
      ],
      [
        "uÅŁ",
        "tur"
      ],
      [
        "ĠÅŁekil",
        "de"
      ],
      [
        "Ġs",
        "Ã¶y"
      ],
      [
        "Ġb",
        "iz"
      ],
      [
        "A",
        "R"
      ],
      [
        "et",
        "im"
      ],
      [
        "aÄŁ",
        "Ä±"
      ],
      [
        "ĠgÃ¶r",
        "e"
      ],
      [
        "as",
        "Ä±l"
      ],
      [
        "an",
        "Ä±n"
      ],
      [
        "Ġb",
        "Ã¶l"
      ],
      [
        "p",
        "or"
      ],
      [
        "m",
        "esi"
      ],
      [
        "s",
        "un"
      ],
      [
        "Ġo",
        "k"
      ],
      [
        "Ġn",
        "eden"
      ],
      [
        "Ġh",
        "ar"
      ],
      [
        "Ġ",
        "'"
      ],
      [
        "iler",
        "i"
      ],
      [
        "Ġt",
        "am"
      ],
      [
        "as",
        "t"
      ],
      [
        "Ġh",
        "izmet"
      ],
      [
        "ĠolduÄŁ",
        "u"
      ],
      [
        "m",
        "aya"
      ],
      [
        "ar",
        "a"
      ],
      [
        "al",
        "Ä±k"
      ],
      [
        "ey",
        "i"
      ],
      [
        "Ġ",
        "eÄŁ"
      ],
      [
        "ad",
        "an"
      ],
      [
        "larÄ±n",
        "Ä±n"
      ],
      [
        "o",
        "b"
      ],
      [
        "Ã¼",
        "ven"
      ],
      [
        "ĠÃ§",
        "ek"
      ],
      [
        "A",
        "N"
      ],
      [
        "Ã",
        "ĩ"
      ],
      [
        "Ġuyg",
        "ul"
      ],
      [
        "et",
        "ir"
      ],
      [
        "Ġt",
        "Ã¼m"
      ],
      [
        "Ġal",
        "t"
      ],
      [
        "Ġ",
        "a"
      ],
      [
        "c",
        "el"
      ],
      [
        "mak",
        "tadÄ±r"
      ],
      [
        "h",
        "an"
      ],
      [
        "Ä±m",
        "Ä±"
      ],
      [
        "r",
        "Ä±"
      ],
      [
        "r",
        "et"
      ],
      [
        "d",
        "ur"
      ],
      [
        "Ġs",
        "at"
      ],
      [
        "ay",
        "Ä±n"
      ],
      [
        "b",
        "ir"
      ],
      [
        "Ġbil",
        "g"
      ],
      [
        "Ġ",
        "ul"
      ],
      [
        "Ä±l",
        "Ä±"
      ],
      [
        "ĠiÃ§",
        "er"
      ],
      [
        "Ġar",
        "t"
      ],
      [
        "Ġi",
        "z"
      ],
      [
        "Ġm",
        "il"
      ],
      [
        "en",
        "in"
      ],
      [
        "ist",
        "em"
      ],
      [
        "Ã",
        "ĸ"
      ],
      [
        "li",
        "ÄŁi"
      ],
      [
        "Ġg",
        "etir"
      ],
      [
        "Ġy",
        "ok"
      ],
      [
        "Ġsah",
        "ip"
      ],
      [
        "iÄŁ",
        "er"
      ],
      [
        "r",
        "an"
      ],
      [
        "n",
        "Ä±"
      ],
      [
        "Ġs",
        "er"
      ],
      [
        "r",
        "e"
      ],
      [
        "Ġy",
        "et"
      ],
      [
        "Ġ",
        "Ã¼l"
      ],
      [
        "d",
        "er"
      ],
      [
        "Ã¼",
        "st"
      ],
      [
        "ĠE",
        "r"
      ],
      [
        "alar",
        "Ä±"
      ],
      [
        "Ġkaz",
        "an"
      ],
      [
        "leÅŁ",
        "tir"
      ],
      [
        "Ġ",
        "Z"
      ],
      [
        "n",
        "Ä±n"
      ],
      [
        "Ġdev",
        "am"
      ],
      [
        "Ġtar",
        "ih"
      ],
      [
        "Ġk",
        "i"
      ],
      [
        "ĠiÅŁ",
        "lem"
      ],
      [
        "b",
        "et"
      ],
      [
        "ĠA",
        "y"
      ],
      [
        "u",
        "p"
      ],
      [
        "Ġd",
        "er"
      ],
      [
        "Ġf",
        "az"
      ],
      [
        "s",
        "iz"
      ],
      [
        "larÄ±n",
        "a"
      ],
      [
        "ol",
        "o"
      ],
      [
        "r",
        "af"
      ],
      [
        "ĠÃ¶nem",
        "li"
      ],
      [
        "Ġal",
        "Ä±n"
      ],
      [
        "d",
        "Ä±ÄŁ"
      ],
      [
        "Ġs",
        "Ä±r"
      ],
      [
        "t",
        "ar"
      ],
      [
        "Ġ",
        "6"
      ],
      [
        "lÄ±ÄŁ",
        "Ä±"
      ],
      [
        "o",
        "ÅŁ"
      ],
      [
        "ĠdeÄŁ",
        "er"
      ],
      [
        "em",
        "ek"
      ],
      [
        "Ġilg",
        "ili"
      ],
      [
        "Ġs",
        "un"
      ],
      [
        "Ġoy",
        "un"
      ],
      [
        "m",
        "am"
      ],
      [
        "Ġs",
        "an"
      ],
      [
        "ĠgÃ¶",
        "z"
      ],
      [
        "Ġ",
        "0"
      ],
      [
        "us",
        "u"
      ],
      [
        "Ġet",
        "ti"
      ],
      [
        "d",
        "Ä±ÄŁÄ±"
      ],
      [
        "Ġd",
        "Ã¼n"
      ],
      [
        "Ä±",
        "cÄ±"
      ],
      [
        "ĠÃ¶ÄŁr",
        "en"
      ],
      [
        "Ġt",
        "ut"
      ],
      [
        "it",
        "im"
      ],
      [
        "es",
        "ine"
      ],
      [
        "ler",
        "de"
      ],
      [
        "iy",
        "as"
      ],
      [
        "ĠolduÄŁ",
        "unu"
      ],
      [
        "en",
        "iz"
      ],
      [
        "Ġy",
        "a"
      ],
      [
        "Ġ",
        "as"
      ],
      [
        "Ġ",
        "az"
      ],
      [
        "u",
        "b"
      ],
      [
        "Ġd",
        "ol"
      ],
      [
        "Ġ",
        "am"
      ],
      [
        "Ġt",
        "er"
      ],
      [
        "iÅŁ",
        "im"
      ],
      [
        "az",
        "Ä±"
      ],
      [
        "Ġs",
        "Ã¶z"
      ],
      [
        "s",
        "ek"
      ],
      [
        "Ġb",
        "in"
      ],
      [
        "Ġ",
        "ede"
      ],
      [
        "ĠÃ¶n",
        "ce"
      ],
      [
        "ĠÃ¼l",
        "k"
      ],
      [
        "iy",
        "on"
      ],
      [
        "li",
        "ÄŁ"
      ],
      [
        "ĠÅŁ",
        "ey"
      ],
      [
        "oc",
        "uk"
      ],
      [
        "Ġ",
        "aÅŁ"
      ],
      [
        "len",
        "dir"
      ],
      [
        "ĠÄ°",
        "n"
      ],
      [
        "ĠB",
        "el"
      ],
      [
        "Ġk",
        "ol"
      ],
      [
        "âĢ",
        "¦"
      ],
      [
        "ler",
        "inin"
      ],
      [
        "Ġ1",
        "0"
      ],
      [
        "il",
        "ik"
      ],
      [
        "ĠdÃ¼ÅŁ",
        "Ã¼n"
      ],
      [
        "B",
        "u"
      ],
      [
        "Ġd",
        "uy"
      ],
      [
        "Ġb",
        "ah"
      ],
      [
        "olo",
        "j"
      ],
      [
        "ik",
        "a"
      ],
      [
        "em",
        "iz"
      ],
      [
        "erk",
        "ez"
      ],
      [
        "ĠK",
        "ur"
      ],
      [
        "or",
        "m"
      ],
      [
        "i",
        "g"
      ],
      [
        "es",
        "ini"
      ],
      [
        "Ã¼n",
        "de"
      ],
      [
        "ek",
        "t"
      ],
      [
        "b",
        "ul"
      ],
      [
        "ĠdÃ¼z",
        "en"
      ],
      [
        "Ã¼z",
        "el"
      ],
      [
        "d",
        "Ã¼"
      ],
      [
        "Ġ",
        "7"
      ],
      [
        "Ġk",
        "Ä±s"
      ],
      [
        "ĠÄ°",
        "l"
      ],
      [
        "ĠÃ¼r",
        "Ã¼n"
      ],
      [
        "'",
        "t"
      ],
      [
        "lik",
        "le"
      ],
      [
        "al",
        "an"
      ],
      [
        "eh",
        "ir"
      ],
      [
        "k",
        "et"
      ],
      [
        "Ã§",
        "e"
      ],
      [
        "abilir",
        "siniz"
      ],
      [
        "Ġbir",
        "lik"
      ],
      [
        "ler",
        "ine"
      ],
      [
        "Ġ",
        "aÄŁ"
      ],
      [
        "Ġyap",
        "t"
      ],
      [
        "t",
        "Ã¼r"
      ],
      [
        "Ġet",
        "k"
      ],
      [
        "di",
        "ÄŁ"
      ],
      [
        "Ġ1",
        "9"
      ],
      [
        "Ġs",
        "istem"
      ],
      [
        "Ġhak",
        "k"
      ],
      [
        "s",
        "Ä±z"
      ],
      [
        "ĠbaÅŁ",
        "k"
      ],
      [
        "Ġm",
        "u"
      ],
      [
        "Ġg",
        "Ã¼ven"
      ],
      [
        "ul",
        "u"
      ],
      [
        "az",
        "Ä±r"
      ],
      [
        "Ġar",
        "asÄ±nda"
      ],
      [
        "lam",
        "a"
      ],
      [
        "Ġ",
        "ama"
      ],
      [
        "ĠÃĸ",
        "z"
      ],
      [
        "Ġz",
        "or"
      ],
      [
        "Ġhay",
        "at"
      ],
      [
        "Ä±n",
        "daki"
      ],
      [
        "Ġf",
        "iyat"
      ],
      [
        "larÄ±n",
        "da"
      ],
      [
        "Ã¶y",
        "le"
      ],
      [
        "i",
        "de"
      ],
      [
        "Ġd",
        "est"
      ],
      [
        "Ġi",
        "s"
      ],
      [
        "Ġfaz",
        "la"
      ],
      [
        "g",
        "Ã¼n"
      ],
      [
        "y",
        "al"
      ],
      [
        "Ġar",
        "k"
      ],
      [
        "Ġb",
        "ek"
      ],
      [
        "Ġt",
        "an"
      ],
      [
        "Ġy",
        "atÄ±r"
      ],
      [
        "as",
        "ar"
      ],
      [
        "Ġt",
        "aÅŁ"
      ],
      [
        "st",
        "an"
      ],
      [
        "Ä±",
        "p"
      ],
      [
        "es",
        "in"
      ],
      [
        "y",
        "e"
      ],
      [
        "o",
        "g"
      ],
      [
        "Ġol",
        "ur"
      ],
      [
        "Ã§",
        "a"
      ],
      [
        "iyor",
        "um"
      ],
      [
        "lar",
        "dan"
      ],
      [
        "s",
        "i"
      ],
      [
        "Ã¼y",
        "or"
      ],
      [
        "t",
        "u"
      ],
      [
        "ĠiÃ§in",
        "de"
      ],
      [
        "di",
        "ÄŁi"
      ],
      [
        "t",
        "ik"
      ],
      [
        "Ġkon",
        "uÅŁ"
      ],
      [
        "Ġd",
        "iÄŁer"
      ],
      [
        "ĠA",
        "k"
      ],
      [
        "g",
        "ram"
      ],
      [
        "Ġt",
        "es"
      ],
      [
        "Ġi",
        "ki"
      ],
      [
        "t",
        "Ã¼"
      ],
      [
        "ey",
        "en"
      ],
      [
        "Ġol",
        "acak"
      ],
      [
        "Ġi",
        "m"
      ],
      [
        "Ġd",
        "Ä±ÅŁ"
      ],
      [
        "ade",
        "ce"
      ],
      [
        "d",
        "ik"
      ],
      [
        "Ġb",
        "as"
      ],
      [
        "ĠÃ¶",
        "l"
      ],
      [
        "Ġm",
        "es"
      ],
      [
        "Ġul",
        "aÅŁ"
      ],
      [
        "Ã¼",
        "p"
      ],
      [
        "Ġk",
        "r"
      ],
      [
        "n",
        "e"
      ],
      [
        "ic",
        "i"
      ],
      [
        "Ġbirlik",
        "te"
      ],
      [
        "Ġh",
        "azÄ±r"
      ],
      [
        "ac",
        "Ä±"
      ],
      [
        "ru",
        "p"
      ],
      [
        "Ġ",
        "8"
      ],
      [
        "Ġgel",
        "en"
      ],
      [
        "ilm",
        "esi"
      ],
      [
        "Ġi",
        "f"
      ],
      [
        "ĠB",
        "ak"
      ],
      [
        "Ġol",
        "mak"
      ],
      [
        "ĠÄ°",
        "ÅŁ"
      ],
      [
        "m",
        "az"
      ],
      [
        "an",
        "k"
      ],
      [
        "stan",
        "bul"
      ],
      [
        "ĠG",
        "en"
      ],
      [
        "iler",
        "in"
      ],
      [
        "eÄŁ",
        "i"
      ],
      [
        "Ġh",
        "iÃ§"
      ],
      [
        "ĠK",
        "ar"
      ],
      [
        "Ġs",
        "aat"
      ],
      [
        "Ġay",
        "nÄ±"
      ],
      [
        "m",
        "eye"
      ],
      [
        "ĠdÃ¶n",
        "em"
      ],
      [
        "Ġn",
        "asÄ±l"
      ],
      [
        "Ġd",
        "ik"
      ],
      [
        "n",
        "et"
      ],
      [
        "in",
        "g"
      ],
      [
        "or",
        "t"
      ],
      [
        "Ġo",
        "t"
      ],
      [
        "ĠG",
        "Ã¼n"
      ],
      [
        "ĠyapÄ±l",
        "an"
      ],
      [
        "Ġ",
        ":"
      ],
      [
        "Ä±l",
        "Ä±k"
      ],
      [
        "o",
        "v"
      ],
      [
        "Ġfark",
        "lÄ±"
      ],
      [
        "lad",
        "Ä±"
      ],
      [
        "Ġk",
        "ab"
      ],
      [
        "ĠBaÅŁk",
        "anÄ±"
      ],
      [
        "Ġ",
        "W"
      ],
      [
        "ĠgÃ¶r",
        "Ã¼n"
      ],
      [
        "k",
        "at"
      ],
      [
        "Ġg",
        "Ã¼zel"
      ],
      [
        "Ġed",
        "en"
      ],
      [
        "l",
        "ah"
      ],
      [
        "ĠâĢ",
        "ĵ"
      ],
      [
        "lar",
        "la"
      ],
      [
        "ĠE",
        "n"
      ],
      [
        "e",
        "g"
      ],
      [
        "Ġk",
        "or"
      ],
      [
        "Ġ",
        "|"
      ],
      [
        "20",
        "1"
      ],
      [
        "iyor",
        "uz"
      ],
      [
        "Ġkon",
        "u"
      ],
      [
        "n",
        "a"
      ],
      [
        "lem",
        "e"
      ],
      [
        "ir",
        "ket"
      ],
      [
        "Ġh",
        "aber"
      ],
      [
        "Ġb",
        "oy"
      ],
      [
        "2",
        "1"
      ],
      [
        "d",
        "ar"
      ],
      [
        "lar",
        "Ä±mÄ±z"
      ],
      [
        "ler",
        "inde"
      ],
      [
        "y",
        "la"
      ],
      [
        "Ġ",
        "eÅŁ"
      ],
      [
        "Ġb",
        "ur"
      ],
      [
        "ti",
        "ÄŁ"
      ],
      [
        "Ġpar",
        "a"
      ],
      [
        "Ġk",
        "Ã¶"
      ],
      [
        "Ġs",
        "al"
      ],
      [
        "Ġk",
        "im"
      ],
      [
        "Ġtam",
        "am"
      ],
      [
        "Ġs",
        "en"
      ],
      [
        "f",
        "a"
      ],
      [
        "Ġd",
        "il"
      ],
      [
        "an",
        "lÄ±"
      ],
      [
        "an",
        "t"
      ],
      [
        "ĠÃ¶",
        "r"
      ],
      [
        "Ġyar",
        "dÄ±m"
      ],
      [
        "ada",
        "ÅŁ"
      ],
      [
        "Ġt",
        "Ã¼r"
      ],
      [
        "l",
        "uk"
      ],
      [
        "Ġ",
        "u"
      ],
      [
        "as",
        "Ä±na"
      ],
      [
        "Ġh",
        "af"
      ],
      [
        "ĠkarÅŁ",
        "Ä±"
      ],
      [
        "Ġh",
        "es"
      ],
      [
        "Ä±z",
        "Ä±"
      ],
      [
        "Ġm",
        "al"
      ],
      [
        "Ġ",
        "Ã¼st"
      ],
      [
        "Ġk",
        "am"
      ],
      [
        "o",
        "st"
      ],
      [
        "Ġi",
        "ht"
      ],
      [
        "Ġ",
        "er"
      ],
      [
        "ĠyÃ¼k",
        "sek"
      ],
      [
        "ek",
        "et"
      ],
      [
        "k",
        "Ã¼"
      ],
      [
        "ĠÃ§",
        "ocuk"
      ],
      [
        "ĠÃ¶n",
        "c"
      ],
      [
        "n",
        "un"
      ],
      [
        "Ġtek",
        "n"
      ],
      [
        "Ġkur",
        "ul"
      ],
      [
        "iniz",
        "i"
      ],
      [
        "ĠÃ§Ä±k",
        "ar"
      ],
      [
        "ĠBel",
        "ed"
      ],
      [
        "Ġs",
        "Ä±k"
      ],
      [
        "ĠbÃ¶l",
        "g"
      ],
      [
        "ĠdoÄŁ",
        "ru"
      ],
      [
        "E",
        "N"
      ],
      [
        "Ġkullan",
        "Ä±l"
      ],
      [
        "s",
        "iyon"
      ],
      [
        "is",
        "inde"
      ],
      [
        ".",
        "\""
      ],
      [
        "Ġd",
        "iye"
      ],
      [
        "em",
        "e"
      ],
      [
        "Ġt",
        "el"
      ],
      [
        "ĠdeÄŁ",
        "iÅŁ"
      ],
      [
        "aÅŁ",
        "tÄ±r"
      ],
      [
        "h",
        "ur"
      ],
      [
        "Ġdest",
        "ek"
      ],
      [
        "Ġkar",
        "ar"
      ],
      [
        "ĠyatÄ±r",
        "Ä±m"
      ],
      [
        "Ã¼t",
        "Ã¼n"
      ],
      [
        "ĠH",
        "aber"
      ],
      [
        "ah",
        "at"
      ],
      [
        "Ġol",
        "uÅŁtur"
      ],
      [
        "Ġ",
        "J"
      ],
      [
        "Ġs",
        "adece"
      ],
      [
        "Ġil",
        "iÅŁ"
      ],
      [
        "Ġk",
        "an"
      ],
      [
        "un",
        "uz"
      ],
      [
        "oÄŁ",
        "lu"
      ],
      [
        "Ã¼",
        "dÃ¼r"
      ],
      [
        "Ġ",
        "9"
      ],
      [
        "Ġan",
        "lam"
      ],
      [
        "ĠgÃ¶r",
        "ev"
      ],
      [
        "ay",
        "laÅŁ"
      ],
      [
        "Ä°",
        "N"
      ],
      [
        "ad",
        "Ä±ÄŁ"
      ],
      [
        "Ġolm",
        "asÄ±"
      ],
      [
        "ekt",
        "Ã¶r"
      ],
      [
        "u",
        "v"
      ],
      [
        "Ã¼n",
        "Ã¼"
      ],
      [
        "es",
        "inin"
      ],
      [
        "Ġd",
        "edi"
      ],
      [
        "an",
        "da"
      ],
      [
        "Ġm",
        "ak"
      ],
      [
        "Ġken",
        "di"
      ],
      [
        "d",
        "Ä±k"
      ],
      [
        "Ġdik",
        "kat"
      ],
      [
        "eb",
        "il"
      ],
      [
        "ĠE",
        "k"
      ],
      [
        "Ġbelir",
        "t"
      ],
      [
        "os",
        "yal"
      ],
      [
        "Ġi",
        "k"
      ],
      [
        "Ġ",
        "Ã¼y"
      ],
      [
        "as",
        "Ä±nÄ±"
      ],
      [
        "Ġh",
        "av"
      ],
      [
        "ĠÄ°",
        "s"
      ],
      [
        "m",
        "i"
      ],
      [
        "us",
        "unda"
      ],
      [
        "ĠC",
        "um"
      ],
      [
        "ĠP",
        "ro"
      ],
      [
        "Ġ1",
        "5"
      ],
      [
        "c",
        "om"
      ],
      [
        "Ġ",
        "em"
      ],
      [
        "A",
        "L"
      ],
      [
        "l",
        "Ã¼k"
      ],
      [
        "Ġm",
        "od"
      ],
      [
        "Ġbulun",
        "an"
      ],
      [
        "or",
        "e"
      ],
      [
        "az",
        "ar"
      ],
      [
        "en",
        "d"
      ],
      [
        "iv",
        "ers"
      ],
      [
        "Ġoldu",
        "k"
      ],
      [
        "ĠO",
        "r"
      ],
      [
        "ok",
        "t"
      ],
      [
        "ÄŁ",
        "Ã¼"
      ],
      [
        "ler",
        "den"
      ],
      [
        "Ġt",
        "ab"
      ],
      [
        "l",
        "ayan"
      ],
      [
        "Ġda",
        "v"
      ],
      [
        "ĠB",
        "il"
      ],
      [
        "at",
        "Ä±"
      ],
      [
        "ad",
        "Ä±"
      ],
      [
        "ĠS",
        "on"
      ],
      [
        "ĠÄ°",
        "stanbul"
      ],
      [
        "ivers",
        "it"
      ],
      [
        "ĠgÃ¶",
        "n"
      ],
      [
        "Ġuyg",
        "un"
      ],
      [
        "Ã¼n",
        "e"
      ],
      [
        "s",
        "am"
      ],
      [
        "Ġgen",
        "el"
      ],
      [
        "A",
        "K"
      ],
      [
        "Ġh",
        "Ä±z"
      ],
      [
        "ĠK",
        "on"
      ],
      [
        "ĠA",
        "v"
      ],
      [
        "an",
        "a"
      ],
      [
        "ĠeÄŁ",
        "itim"
      ],
      [
        "Ġed",
        "er"
      ],
      [
        "Ġkat",
        "Ä±l"
      ],
      [
        "Ġoy",
        "n"
      ],
      [
        "Ġet",
        "m"
      ],
      [
        "ĠgerÃ§ek",
        "leÅŁtir"
      ],
      [
        "ĠÃ§",
        "ev"
      ],
      [
        "on",
        "om"
      ],
      [
        "Ã§",
        "i"
      ],
      [
        "r",
        "ak"
      ],
      [
        "Ġg",
        "Ã¼Ã§"
      ],
      [
        "Ġm",
        "ut"
      ],
      [
        "l",
        "ak"
      ],
      [
        "E",
        "T"
      ],
      [
        "g",
        "el"
      ],
      [
        "Ä",
        "ŀ"
      ],
      [
        "ĠE",
        "ÄŁ"
      ],
      [
        "Ġ",
        "#"
      ],
      [
        "t",
        "al"
      ],
      [
        "Ġ",
        "w"
      ],
      [
        "Ġark",
        "adaÅŁ"
      ],
      [
        "ĠÃ§alÄ±ÅŁ",
        "malar"
      ],
      [
        "g",
        "e"
      ],
      [
        "a",
        "j"
      ],
      [
        "Ġk",
        "it"
      ],
      [
        "rÄ±",
        "ca"
      ],
      [
        "Ä±r",
        "ak"
      ],
      [
        "Ġsor",
        "un"
      ],
      [
        "I",
        "N"
      ],
      [
        "Ġm",
        "ad"
      ],
      [
        "mÄ±ÅŁ",
        "tÄ±r"
      ],
      [
        "Ġs",
        "av"
      ],
      [
        "ĠkarÅŁ",
        "Ä±l"
      ],
      [
        "lan",
        "an"
      ],
      [
        "ĠÃ¼zer",
        "e"
      ],
      [
        "ĠsÃ¶y",
        "l"
      ],
      [
        "Ġhakk",
        "Ä±nda"
      ],
      [
        "ec",
        "e"
      ],
      [
        "Ġb",
        "it"
      ],
      [
        "Ġh",
        "at"
      ],
      [
        "Ġpro",
        "j"
      ],
      [
        "Ġf",
        "ir"
      ],
      [
        "Ã§",
        "ok"
      ],
      [
        "et",
        "i"
      ],
      [
        "m",
        "eler"
      ],
      [
        "âĢ",
        "Ŀ"
      ],
      [
        "ĠÅŁ",
        "irket"
      ],
      [
        "Ġ",
        "/"
      ],
      [
        "Ġg",
        "id"
      ],
      [
        "r",
        "es"
      ],
      [
        "h",
        "al"
      ],
      [
        "Ġson",
        "r"
      ],
      [
        "Ġb",
        "un"
      ],
      [
        "en",
        "k"
      ],
      [
        "b",
        "ol"
      ],
      [
        "Ġbir",
        "i"
      ],
      [
        "ĠÃ¼r",
        "et"
      ],
      [
        "en",
        "t"
      ],
      [
        "k",
        "an"
      ],
      [
        "Ġol",
        "uÅŁ"
      ],
      [
        "n",
        "ak"
      ],
      [
        "ler",
        "inden"
      ],
      [
        "ĠÃ§",
        "Ã¶z"
      ],
      [
        "Ġbil",
        "e"
      ],
      [
        "1",
        "0"
      ],
      [
        "Ġiht",
        "iy"
      ],
      [
        "Ġs",
        "Ä±n"
      ],
      [
        "larÄ±n",
        "dan"
      ],
      [
        "ĠbaÅŁ",
        "ar"
      ],
      [
        "b",
        "ar"
      ],
      [
        "A",
        "n"
      ],
      [
        "ler",
        "imiz"
      ],
      [
        "Ġhar",
        "eket"
      ],
      [
        "Ġb",
        "Ä±rak"
      ],
      [
        "Ġed",
        "il"
      ],
      [
        "Ġm",
        "Ã¼"
      ],
      [
        "ĠyaÅŁ",
        "am"
      ],
      [
        "ef",
        "on"
      ],
      [
        "Ġb",
        "azÄ±"
      ],
      [
        "s",
        "al"
      ],
      [
        "du",
        "ÄŁu"
      ],
      [
        "Ġk",
        "aÃ§"
      ],
      [
        "Ġuygul",
        "am"
      ],
      [
        "lam",
        "ak"
      ],
      [
        "Ã¼m",
        "Ã¼z"
      ],
      [
        "iÄŁ",
        "i"
      ],
      [
        "ler",
        "le"
      ],
      [
        "ĠÃ¼zer",
        "inde"
      ],
      [
        "ĠGen",
        "el"
      ],
      [
        "Ġg",
        "it"
      ],
      [
        "r",
        "i"
      ],
      [
        "Ġy",
        "Ã¼r"
      ],
      [
        "Ġet",
        "mek"
      ],
      [
        "E",
        "L"
      ],
      [
        "Ġt",
        "al"
      ],
      [
        "e",
        "da"
      ],
      [
        "ĠM",
        "u"
      ],
      [
        "ĠgeÃ§",
        "ir"
      ],
      [
        "Ġbah",
        "is"
      ],
      [
        "Ġm",
        "ev"
      ],
      [
        "o",
        "h"
      ],
      [
        "Ã¼ÅŁ",
        "ter"
      ],
      [
        "ĠdÃ¼n",
        "y"
      ],
      [
        "1",
        "9"
      ],
      [
        "m",
        "uÅŁ"
      ],
      [
        "g",
        "il"
      ],
      [
        "ĠB",
        "aÅŁ"
      ],
      [
        "Ġs",
        "u"
      ],
      [
        "Ġh",
        "ast"
      ],
      [
        "Ã¼c",
        "ret"
      ],
      [
        "Ġt",
        "eÅŁ"
      ],
      [
        "l",
        "um"
      ],
      [
        "Ġuz",
        "un"
      ],
      [
        "m",
        "in"
      ],
      [
        "m",
        "ayÄ±"
      ],
      [
        "d",
        "Ä±ndan"
      ],
      [
        "Ġan",
        "lat"
      ],
      [
        "Ġed",
        "iyor"
      ],
      [
        "Ġort",
        "aya"
      ],
      [
        "len",
        "en"
      ],
      [
        "m",
        "ay"
      ],
      [
        "Ġ1",
        "2"
      ],
      [
        "Ġ",
        "Ã¼cret"
      ],
      [
        "Ġm",
        "erkez"
      ],
      [
        "ter",
        "net"
      ],
      [
        "Ġpro",
        "gram"
      ],
      [
        "ĠB",
        "ur"
      ],
      [
        "ĠÃ¼zer",
        "ine"
      ],
      [
        "ed",
        "ik"
      ],
      [
        "k",
        "Ä±"
      ],
      [
        "g",
        "an"
      ],
      [
        "Ġkol",
        "ay"
      ],
      [
        "Ġf",
        "a"
      ],
      [
        "Ġm",
        "i"
      ],
      [
        "Ã",
        "®"
      ],
      [
        "u",
        "cu"
      ],
      [
        "Ġ",
        ","
      ],
      [
        "at",
        "ik"
      ],
      [
        "v",
        "er"
      ],
      [
        "Ġp",
        "aylaÅŁ"
      ],
      [
        "ĠyÃ¶n",
        "et"
      ],
      [
        "Ġs",
        "eb"
      ],
      [
        "ĠaÃ§Ä±k",
        "lam"
      ],
      [
        "Ġp",
        "lan"
      ],
      [
        "ol",
        "u"
      ],
      [
        "Ġt",
        "asar"
      ],
      [
        "san",
        "Ä±z"
      ],
      [
        "am",
        "az"
      ],
      [
        "eÅŁ",
        "it"
      ],
      [
        "ĠgÃ¶r",
        "Ã¼ÅŁ"
      ],
      [
        "um",
        "uz"
      ],
      [
        "ĠM",
        "il"
      ],
      [
        "h",
        "e"
      ],
      [
        "Ġh",
        "as"
      ],
      [
        "Ġ20",
        "0"
      ],
      [
        "Ġif",
        "ade"
      ],
      [
        "Ä°",
        "L"
      ],
      [
        "ur",
        "t"
      ],
      [
        "Ġgel",
        "iÅŁ"
      ],
      [
        "r",
        "ar"
      ],
      [
        "Ġkad",
        "Ä±n"
      ],
      [
        "s",
        "in"
      ],
      [
        "ob",
        "il"
      ],
      [
        "mas",
        "Ä±nÄ±"
      ],
      [
        "eler",
        "in"
      ],
      [
        "ad",
        "Ä±ÄŁÄ±"
      ],
      [
        "Ã¼n",
        "kÃ¼"
      ],
      [
        "g",
        "ul"
      ],
      [
        "Ġo",
        "p"
      ],
      [
        "el",
        "im"
      ],
      [
        "Ġp",
        "iyas"
      ],
      [
        "B",
        "ir"
      ],
      [
        "Ġp",
        "ol"
      ],
      [
        "ĠT",
        "L"
      ],
      [
        "ede",
        "f"
      ],
      [
        "ay",
        "Ä±s"
      ],
      [
        "Ġan",
        "cak"
      ],
      [
        "t",
        "Ä±ÄŁ"
      ],
      [
        "A",
        "T"
      ],
      [
        "ĠâĢ",
        "ľ"
      ],
      [
        "ĠsaÄŁ",
        "lÄ±k"
      ],
      [
        "ab",
        "a"
      ],
      [
        "t",
        "Ä±k"
      ],
      [
        "ĠÃ¶",
        "de"
      ],
      [
        "ĠkiÅŁ",
        "i"
      ],
      [
        "is",
        "tan"
      ],
      [
        "Ġy",
        "ay"
      ],
      [
        "Ġy",
        "orum"
      ],
      [
        "v",
        "ur"
      ],
      [
        "m",
        "er"
      ],
      [
        "ak",
        "at"
      ],
      [
        "ĠT",
        "ek"
      ],
      [
        "ilm",
        "iÅŁ"
      ],
      [
        "Ġm",
        "aÃ§"
      ],
      [
        "ĠÅŁ",
        "u"
      ],
      [
        "l",
        "im"
      ],
      [
        "ĠT",
        "ar"
      ],
      [
        "tr",
        "ol"
      ],
      [
        "ti",
        "f"
      ],
      [
        "az",
        "et"
      ],
      [
        "ĠÃľ",
        "n"
      ],
      [
        "anÄ±",
        "t"
      ],
      [
        "eda",
        "v"
      ],
      [
        "d",
        "et"
      ],
      [
        "c",
        "ih"
      ],
      [
        "ĠM",
        "Ã¼dÃ¼r"
      ],
      [
        "iz",
        "e"
      ],
      [
        "ĠyÄ±l",
        "Ä±nda"
      ],
      [
        "s",
        "uz"
      ],
      [
        "g",
        "Ä±"
      ],
      [
        "B",
        "D"
      ],
      [
        "Ġbil",
        "gi"
      ],
      [
        "Ġm",
        "et"
      ],
      [
        "ĠyÃ¼z",
        "de"
      ],
      [
        "m",
        "ir"
      ],
      [
        "iy",
        "aret"
      ],
      [
        "ĠgÃ¶n",
        "der"
      ],
      [
        "Ġkab",
        "ul"
      ],
      [
        "ĠbaÅŁk",
        "a"
      ],
      [
        "ĠE",
        "s"
      ],
      [
        "Ġd",
        "em"
      ],
      [
        "Ġbir",
        "Ã§ok"
      ],
      [
        "Ġy",
        "as"
      ],
      [
        "T",
        "Ã¼rk"
      ],
      [
        "Ġy",
        "ayÄ±n"
      ],
      [
        "Ġar",
        "aÃ§"
      ],
      [
        "Ġ1",
        "1"
      ],
      [
        "Ä°",
        "R"
      ],
      [
        "Ġs",
        "Ä±"
      ],
      [
        "Ġk",
        "oy"
      ],
      [
        "Ġay",
        "r"
      ],
      [
        "ĠP",
        "ar"
      ],
      [
        "Ġb",
        "Ã¼tÃ¼n"
      ],
      [
        "ĠBaÅŁk",
        "an"
      ],
      [
        "Ġd",
        "iy"
      ],
      [
        "oÄŁ",
        "an"
      ],
      [
        "ĠbÃ¶l",
        "Ã¼m"
      ],
      [
        "Ġyak",
        "laÅŁ"
      ],
      [
        "lÄ±",
        "y"
      ],
      [
        "Ġt",
        "ah"
      ],
      [
        "Ġar",
        "dÄ±ndan"
      ],
      [
        "Ã¶",
        "k"
      ],
      [
        "Ä±y",
        "a"
      ],
      [
        "Ġmil",
        "yon"
      ],
      [
        "Ġk",
        "om"
      ],
      [
        "Ġ",
        "un"
      ],
      [
        "t",
        "em"
      ],
      [
        "Ġed",
        "ilen"
      ],
      [
        "A",
        "S"
      ],
      [
        "Ġf",
        "ilm"
      ],
      [
        "Ġ",
        "Â"
      ],
      [
        "Ã¼Ã§",
        "Ã¼k"
      ],
      [
        "du",
        "ÄŁ"
      ],
      [
        "ĠiÃ§er",
        "isinde"
      ],
      [
        "Ġede",
        "b"
      ],
      [
        "Ġ",
        "Ã¼Ã§"
      ],
      [
        "acaÄŁ",
        "Ä±"
      ],
      [
        "ediÄŁ",
        "i"
      ],
      [
        "g",
        "in"
      ],
      [
        "eceÄŁ",
        "i"
      ],
      [
        "Ġkur",
        "um"
      ],
      [
        "mas",
        "Ä±na"
      ],
      [
        "Ġt",
        "r"
      ],
      [
        "Ġol",
        "abilir"
      ],
      [
        "Ġkap",
        "sam"
      ],
      [
        "Ġkon",
        "usunda"
      ],
      [
        "Ġh",
        "an"
      ],
      [
        "in",
        "deki"
      ],
      [
        "ĠÃ§",
        "eÅŁit"
      ],
      [
        "m",
        "ez"
      ],
      [
        "en",
        "ek"
      ],
      [
        "ĠCum",
        "hur"
      ],
      [
        "as",
        "Ä±nÄ±n"
      ],
      [
        "al",
        "t"
      ],
      [
        "c",
        "ek"
      ],
      [
        "Ġ",
        "%"
      ],
      [
        "Ġyak",
        "Ä±n"
      ],
      [
        "ĠE",
        "l"
      ],
      [
        "Ġtel",
        "efon"
      ],
      [
        "Ġk",
        "es"
      ],
      [
        "Ä±l",
        "dÄ±"
      ],
      [
        "Ġbil",
        "in"
      ],
      [
        "Ġh",
        "is"
      ],
      [
        "is",
        "ini"
      ],
      [
        "an",
        "an"
      ],
      [
        "ĠY",
        "ap"
      ],
      [
        "E",
        "S"
      ],
      [
        "Ġd",
        "in"
      ],
      [
        "Ġter",
        "cih"
      ],
      [
        "Ä±l",
        "masÄ±"
      ],
      [
        "n",
        "de"
      ],
      [
        "c",
        "h"
      ],
      [
        "Ġi",
        "d"
      ],
      [
        "iler",
        "e"
      ],
      [
        "ore",
        "x"
      ],
      [
        "Ġ",
        "uÃ§"
      ],
      [
        "il",
        "e"
      ],
      [
        "Ġr",
        "es"
      ],
      [
        "Ġv",
        "at"
      ],
      [
        "2",
        "2"
      ],
      [
        "Ã¼l",
        "tÃ¼r"
      ],
      [
        "ĠdeÄŁer",
        "lendir"
      ],
      [
        "a",
        "g"
      ],
      [
        "Ġr",
        "ahat"
      ],
      [
        "anda",
        "ÅŁ"
      ],
      [
        "Ġyap",
        "an"
      ],
      [
        "o",
        "lar"
      ],
      [
        "ĠAn",
        "cak"
      ],
      [
        "em",
        "m"
      ],
      [
        "el",
        "e"
      ],
      [
        "Ä±l",
        "Ä±r"
      ],
      [
        "ĠA",
        "d"
      ],
      [
        "Ġkal",
        "it"
      ],
      [
        "O",
        "R"
      ],
      [
        "ĠÃ¶ÄŁren",
        "c"
      ],
      [
        "al",
        "i"
      ],
      [
        "Ġd",
        "ah"
      ],
      [
        "ĠÃ¼zer",
        "inden"
      ],
      [
        "Ġyer",
        "ine"
      ],
      [
        "Ġ1",
        "8"
      ],
      [
        "oÄŁ",
        "raf"
      ],
      [
        "k",
        "Ã¼n"
      ],
      [
        "Ġm",
        "Ã¼ÅŁter"
      ],
      [
        "Ġh",
        "edef"
      ],
      [
        "Ġm",
        "ah"
      ],
      [
        "acak",
        "tÄ±r"
      ],
      [
        "ĠS",
        "an"
      ],
      [
        "Ġh",
        "ep"
      ],
      [
        "ĠY",
        "ar"
      ],
      [
        "m",
        "adan"
      ],
      [
        "A",
        "Y"
      ],
      [
        "Ä±m",
        "a"
      ],
      [
        "m",
        "alÄ±"
      ],
      [
        "A",
        "M"
      ],
      [
        "iz",
        "i"
      ],
      [
        "ab",
        "Ä±"
      ],
      [
        "ic",
        "aret"
      ],
      [
        "Ġ",
        "av"
      ],
      [
        "Ġgel",
        "iÅŁtir"
      ],
      [
        "man",
        "Ä±n"
      ],
      [
        "Ġb",
        "Ã¶yle"
      ],
      [
        "b",
        "er"
      ],
      [
        "t",
        "Ä±ÄŁÄ±"
      ],
      [
        "Ġ",
        "Ã¼n"
      ],
      [
        "lem",
        "ek"
      ],
      [
        "ĠA",
        "t"
      ],
      [
        "ay",
        "et"
      ],
      [
        "s",
        "ik"
      ],
      [
        "Ġ1",
        "4"
      ],
      [
        "ĠH",
        "er"
      ],
      [
        "ĠBak",
        "an"
      ],
      [
        "ley",
        "en"
      ],
      [
        "rup",
        "a"
      ],
      [
        "Ġk",
        "Ä±r"
      ],
      [
        "Ġson",
        "uÃ§"
      ],
      [
        "Ġgel",
        "ir"
      ],
      [
        "ek",
        "k"
      ],
      [
        "E",
        "K"
      ],
      [
        "ey",
        "in"
      ],
      [
        "iy",
        "esi"
      ],
      [
        "is",
        "ine"
      ],
      [
        "Ġm",
        "Ä±"
      ],
      [
        "Ä±ÅŁ",
        "Ä±"
      ],
      [
        "oÄŁ",
        "u"
      ],
      [
        "v",
        "an"
      ],
      [
        "Ġz",
        "iyaret"
      ],
      [
        "Ġvar",
        "dÄ±r"
      ],
      [
        "ĠY",
        "Ä±l"
      ],
      [
        "Ġyap",
        "mak"
      ],
      [
        "un",
        "dan"
      ],
      [
        "Ġs",
        "osyal"
      ],
      [
        "k",
        "ara"
      ],
      [
        "ĠD",
        "ev"
      ],
      [
        "ebilir",
        "siniz"
      ],
      [
        "n",
        "ek"
      ],
      [
        "ar",
        "asÄ±"
      ],
      [
        "ĠB",
        "en"
      ],
      [
        "Ġk",
        "ez"
      ],
      [
        "Ġkon",
        "trol"
      ],
      [
        "im",
        "di"
      ],
      [
        "Ġk",
        "av"
      ],
      [
        "oÄŁ",
        "un"
      ],
      [
        "Ã¼c",
        "ad"
      ],
      [
        "o",
        "w"
      ],
      [
        "Ġ1",
        "3"
      ],
      [
        "han",
        "gi"
      ],
      [
        "Ġs",
        "ektÃ¶r"
      ],
      [
        "Ġt",
        "ur"
      ],
      [
        "Ä±r",
        "s"
      ],
      [
        "Ä±ÅŁ",
        "tÄ±r"
      ],
      [
        "Ġbu",
        "gÃ¼n"
      ],
      [
        "ek",
        "tr"
      ],
      [
        "ak",
        "k"
      ],
      [
        ")",
        ","
      ],
      [
        "ĠA",
        "s"
      ],
      [
        "Ä±yor",
        "uz"
      ],
      [
        "Ġzaman",
        "da"
      ],
      [
        "er",
        "li"
      ],
      [
        "Ġin",
        "cel"
      ],
      [
        "Ä±yor",
        "um"
      ],
      [
        "Ġm",
        "Ã¼m"
      ],
      [
        "Ġyapt",
        "Ä±ÄŁÄ±"
      ],
      [
        "ul",
        "uk"
      ],
      [
        "Ġd",
        "ak"
      ],
      [
        "Ġ1",
        "6"
      ],
      [
        "Ã¼",
        "b"
      ],
      [
        "is",
        "yon"
      ],
      [
        "Ġ",
        "e"
      ],
      [
        "Ġm",
        "as"
      ],
      [
        "Ġm",
        "ey"
      ],
      [
        "g",
        "Ä±n"
      ],
      [
        "u",
        "d"
      ],
      [
        "ĠE",
        "v"
      ],
      [
        "ĠbaÅŁ",
        "vur"
      ],
      [
        "ĠB",
        "Ã¼yÃ¼k"
      ],
      [
        "ĠgÃ¶r",
        "Ã¼l"
      ],
      [
        "Ġek",
        "onom"
      ],
      [
        "ĠY",
        "Ã¶n"
      ],
      [
        "sun",
        "uz"
      ],
      [
        "ar",
        "i"
      ],
      [
        "ĠK",
        "an"
      ],
      [
        "ĠM",
        "ah"
      ],
      [
        "Ġin",
        "dir"
      ],
      [
        "Ġt",
        "av"
      ],
      [
        "Ġb",
        "or"
      ],
      [
        "L",
        "AR"
      ],
      [
        "er",
        "j"
      ],
      [
        "Ġgir",
        "iÅŁ"
      ],
      [
        "ĠdÃ¶n",
        "Ã¼ÅŁ"
      ],
      [
        "Ġdev",
        "let"
      ],
      [
        "5",
        "0"
      ],
      [
        "Ġel",
        "de"
      ],
      [
        "Ġtak",
        "ip"
      ],
      [
        "oloj",
        "i"
      ],
      [
        "Ã¼n",
        "Ã¼n"
      ],
      [
        "Ġo",
        "d"
      ],
      [
        "Ġgerek",
        "en"
      ],
      [
        "miÅŁ",
        "tir"
      ],
      [
        "Ġar",
        "aÅŁtÄ±r"
      ],
      [
        "Ġhes",
        "ap"
      ],
      [
        "Ġv",
        "ur"
      ],
      [
        "ĠmÃ¼m",
        "kÃ¼n"
      ],
      [
        "un",
        "ca"
      ],
      [
        "ĠÃľn",
        "iversit"
      ],
      [
        "Ġolduk",
        "Ã§a"
      ],
      [
        "lan",
        "dÄ±r"
      ],
      [
        "Ġy",
        "en"
      ],
      [
        "Ġz",
        "ar"
      ],
      [
        "ĠS",
        "er"
      ],
      [
        "u",
        "c"
      ],
      [
        "ĠÃ§alÄ±ÅŁ",
        "an"
      ],
      [
        "Ġkay",
        "nak"
      ],
      [
        "E",
        "M"
      ],
      [
        "1",
        "2"
      ],
      [
        "Ġ",
        "li"
      ],
      [
        "U",
        "R"
      ],
      [
        "Ġil",
        "et"
      ],
      [
        "Ġtop",
        "lan"
      ],
      [
        "alar",
        "Ä±n"
      ],
      [
        "Ã¼k",
        "Ã¼m"
      ],
      [
        "ĠD",
        "Ã¼n"
      ],
      [
        "Ġi",
        "ti"
      ],
      [
        "ĠÃĸz",
        "el"
      ],
      [
        "Ġs",
        "es"
      ],
      [
        "ĠbaÄŁ",
        "lÄ±"
      ],
      [
        "Ġb",
        "er"
      ],
      [
        "ĠkÄ±s",
        "a"
      ],
      [
        "Ġneden",
        "iyle"
      ],
      [
        "dÄ±ÄŁ",
        "Ä±nÄ±"
      ],
      [
        "Ġvat",
        "andaÅŁ"
      ],
      [
        "Ġsiz",
        "e"
      ],
      [
        "abil",
        "ecek"
      ],
      [
        "al",
        "iyet"
      ],
      [
        "Ġm",
        "er"
      ],
      [
        "ĠyÃ¶n",
        "tem"
      ],
      [
        "am",
        "ak"
      ],
      [
        "ĠdÃ¼n",
        "ya"
      ],
      [
        "Ġ1",
        "7"
      ],
      [
        "lÄ±y",
        "or"
      ],
      [
        "o",
        "f"
      ],
      [
        "ĠÄ°",
        "Ã§"
      ],
      [
        "ĠM",
        "erkez"
      ],
      [
        "ta",
        "j"
      ],
      [
        "Ġb",
        "Ã¼y"
      ],
      [
        "g",
        "u"
      ],
      [
        "am",
        "p"
      ],
      [
        "Ġis",
        "im"
      ],
      [
        "l",
        "as"
      ],
      [
        "d",
        "oÄŁan"
      ],
      [
        "Ġc",
        "ev"
      ],
      [
        "Ä±",
        "t"
      ],
      [
        "Ġart",
        "Ä±k"
      ],
      [
        "s",
        "il"
      ],
      [
        "Ġy",
        "aÄŁ"
      ],
      [
        "Ġol",
        "ay"
      ],
      [
        "Ġver",
        "en"
      ],
      [
        "Ġtak",
        "Ä±m"
      ],
      [
        "Ġkullan",
        "Ä±cÄ±"
      ],
      [
        "Ġhal",
        "k"
      ],
      [
        "acaÄŁ",
        "Ä±nÄ±"
      ],
      [
        "ĠÃ¶zel",
        "lik"
      ],
      [
        "ĠseÃ§",
        "im"
      ],
      [
        "ĠsÄ±n",
        "Ä±r"
      ],
      [
        "at",
        "e"
      ],
      [
        "ĠgeÃ§",
        "en"
      ],
      [
        "ĠyÃ¼k",
        "sel"
      ],
      [
        "Ġben",
        "z"
      ],
      [
        "Ġger",
        "i"
      ],
      [
        "ĠgÃ¼n",
        "Ã¼"
      ],
      [
        "Ġk",
        "ayÄ±"
      ],
      [
        "Ġk",
        "Ä±z"
      ],
      [
        "Ġol",
        "sun"
      ],
      [
        "Ġgel",
        "di"
      ],
      [
        "Ġkal",
        "dÄ±r"
      ],
      [
        "iy",
        "i"
      ],
      [
        "ĠT",
        "r"
      ],
      [
        "H",
        "P"
      ],
      [
        "Ġiti",
        "bar"
      ],
      [
        "Ġtop",
        "lum"
      ],
      [
        "ĠA",
        "BD"
      ],
      [
        "Ġ20",
        "20"
      ],
      [
        "Ġalt",
        "Ä±nda"
      ],
      [
        "ĠÄ°",
        "z"
      ],
      [
        "oh",
        "bet"
      ],
      [
        "kin",
        "ci"
      ],
      [
        "ĠD",
        "r"
      ],
      [
        "l",
        "Ã¼l"
      ],
      [
        "Ġher",
        "hangi"
      ],
      [
        "Ġin",
        "an"
      ],
      [
        "ĠhiÃ§",
        "bir"
      ],
      [
        "Ġb",
        "ey"
      ],
      [
        "Ã§",
        "Ä±"
      ],
      [
        "Ġm",
        "Ã¼cad"
      ],
      [
        "f",
        "er"
      ],
      [
        "Ġm",
        "ik"
      ],
      [
        "al",
        "e"
      ],
      [
        "Ġn",
        "okt"
      ],
      [
        "ĠB",
        "iz"
      ],
      [
        "Ġyar",
        "at"
      ],
      [
        "is",
        "k"
      ],
      [
        "Ġm",
        "ark"
      ],
      [
        "it",
        "ik"
      ],
      [
        "Ġt",
        "at"
      ],
      [
        "Ġben",
        "im"
      ],
      [
        "00",
        "0"
      ],
      [
        "Ġt",
        "edav"
      ],
      [
        "Ġm",
        "em"
      ],
      [
        "ĠsÃ¶yl",
        "edi"
      ],
      [
        "er",
        "n"
      ],
      [
        "ĠY",
        "eni"
      ],
      [
        "Ġmod",
        "el"
      ],
      [
        "Ġp",
        "er"
      ],
      [
        "us",
        "lar"
      ],
      [
        "um",
        "lu"
      ],
      [
        "ĠAv",
        "rupa"
      ],
      [
        "Ġil",
        "Ã§"
      ],
      [
        "ĠsÃ¼r",
        "e"
      ],
      [
        "um",
        "u"
      ],
      [
        "Ġ3",
        "0"
      ],
      [
        "Ġgen",
        "Ã§"
      ],
      [
        "ti",
        "ÄŁi"
      ],
      [
        "ĠK",
        "as"
      ],
      [
        "ti",
        "v"
      ],
      [
        "Ġb",
        "unu"
      ],
      [
        "el",
        "en"
      ],
      [
        "ot",
        "oÄŁraf"
      ],
      [
        "Ġan",
        "laÅŁ"
      ],
      [
        "ad",
        "Ä±k"
      ],
      [
        "Ġgerek",
        "ir"
      ],
      [
        "Ġm",
        "ed"
      ],
      [
        "b",
        "aÅŁk"
      ],
      [
        "O",
        "N"
      ],
      [
        "f",
        "or"
      ],
      [
        "man",
        "Ä±z"
      ],
      [
        "p",
        "r"
      ],
      [
        "is",
        "inin"
      ],
      [
        "Ġher",
        "k"
      ],
      [
        "Ġ20",
        "21"
      ],
      [
        "Ġy",
        "ine"
      ],
      [
        "ĠhÄ±z",
        "lÄ±"
      ],
      [
        "Ġs",
        "por"
      ],
      [
        "eler",
        "ini"
      ],
      [
        "ĠE",
        "y"
      ],
      [
        "an",
        "i"
      ],
      [
        "Ġhem",
        "en"
      ],
      [
        "1",
        "1"
      ],
      [
        "ĠÃĸ",
        "n"
      ],
      [
        "ĠH",
        "al"
      ],
      [
        "Ġet",
        "kin"
      ],
      [
        "Ġtem",
        "el"
      ],
      [
        "eÄŁ",
        "in"
      ],
      [
        "ĠÃ§ev",
        "r"
      ],
      [
        "Ġor",
        "an"
      ],
      [
        "ekk",
        "Ã¼r"
      ],
      [
        "Ġal",
        "mak"
      ],
      [
        "Ġd",
        "ir"
      ],
      [
        "Ã¼s",
        "Ã¼"
      ],
      [
        "ĠO",
        "n"
      ],
      [
        "ĠK",
        "ul"
      ],
      [
        "ek",
        "li"
      ],
      [
        "ĠÅŀ",
        "ub"
      ],
      [
        "Ä°",
        "K"
      ],
      [
        "lan",
        "dÄ±"
      ],
      [
        "dan",
        "a"
      ],
      [
        "Ġin",
        "ternet"
      ],
      [
        "Ġok",
        "ul"
      ],
      [
        "u",
        "h"
      ],
      [
        "3",
        "0"
      ],
      [
        "t",
        "in"
      ],
      [
        "Ġf",
        "ay"
      ],
      [
        "Ġen",
        "gel"
      ],
      [
        "c",
        "o"
      ],
      [
        "Ġb",
        "ar"
      ],
      [
        "ĠAl",
        "lah"
      ],
      [
        "Ġk",
        "Ã¼Ã§Ã¼k"
      ],
      [
        "du",
        "k"
      ],
      [
        "ul",
        "an"
      ],
      [
        "A",
        "D"
      ],
      [
        "ĠB",
        "unun"
      ],
      [
        "d",
        "in"
      ],
      [
        "uy",
        "la"
      ],
      [
        "Ġed",
        "ildi"
      ],
      [
        "c",
        "ut"
      ],
      [
        "ĠO",
        "k"
      ],
      [
        "n",
        "da"
      ],
      [
        "Ġhaf",
        "ta"
      ],
      [
        "d",
        "im"
      ],
      [
        "ĠO",
        "l"
      ],
      [
        "al",
        "at"
      ],
      [
        "b",
        "r"
      ],
      [
        "Ġk",
        "il"
      ],
      [
        "Ä°",
        "Y"
      ],
      [
        "ĠdeÄŁiÅŁ",
        "ik"
      ],
      [
        "Ġp",
        "ek"
      ],
      [
        "eler",
        "e"
      ],
      [
        "Ġc",
        "ez"
      ],
      [
        "ĠH",
        "az"
      ],
      [
        "Ä±l",
        "mÄ±ÅŁ"
      ],
      [
        "Ġi",
        "h"
      ],
      [
        "Ġk",
        "oÅŁ"
      ],
      [
        "ab",
        "an"
      ],
      [
        "Ä°",
        "M"
      ],
      [
        "it",
        "e"
      ],
      [
        "Ġek",
        "ip"
      ],
      [
        "ĠÃ§Ã¶z",
        "Ã¼m"
      ],
      [
        "b",
        "ak"
      ],
      [
        "Ġr",
        "ek"
      ],
      [
        "L",
        "ER"
      ],
      [
        "al",
        "l"
      ],
      [
        "m",
        "em"
      ],
      [
        "ÅŁ",
        "ehir"
      ],
      [
        "Ġ201",
        "9"
      ],
      [
        "Ġ",
        "ac"
      ],
      [
        "Ġol",
        "up"
      ],
      [
        "lÃ¼",
        "ÄŁÃ¼"
      ],
      [
        "Ġt",
        "Ã¼k"
      ],
      [
        "Ã¼",
        "f"
      ],
      [
        "Ġs",
        "iyas"
      ],
      [
        "ĠT",
        "op"
      ],
      [
        "Ġed",
        "ilm"
      ],
      [
        "ĠyÃ¶n",
        "elik"
      ],
      [
        "eceÄŁ",
        "ini"
      ],
      [
        "imiz",
        "in"
      ],
      [
        "c",
        "Ã¼"
      ],
      [
        "ĠT",
        "ur"
      ],
      [
        "ecek",
        "tir"
      ],
      [
        "Ġbil",
        "dir"
      ],
      [
        "Ġtem",
        "iz"
      ],
      [
        "Ġfa",
        "aliyet"
      ],
      [
        "ĠBeled",
        "iye"
      ],
      [
        "d",
        "Ä±n"
      ],
      [
        "ĠdeÄŁ",
        "iÅŁtir"
      ],
      [
        "Ġc",
        "anlÄ±"
      ],
      [
        "er",
        "asyon"
      ],
      [
        "Ġs",
        "ab"
      ],
      [
        "Ġkon",
        "usu"
      ],
      [
        "f",
        "orm"
      ],
      [
        "Ġsat",
        "Ä±ÅŁ"
      ],
      [
        "ĠK",
        "al"
      ],
      [
        "alar",
        "da"
      ],
      [
        "ĠK",
        "ay"
      ],
      [
        "iniz",
        "e"
      ],
      [
        "Ġad",
        "et"
      ],
      [
        "ĠN",
        "e"
      ],
      [
        "Ġa",
        "it"
      ],
      [
        "Ä±s",
        "Ä±nda"
      ],
      [
        "ĠsÃ¼r",
        "ec"
      ],
      [
        "Ġm",
        "an"
      ],
      [
        "v",
        "et"
      ],
      [
        "Ġ201",
        "8"
      ],
      [
        "ĠAy",
        "rÄ±ca"
      ],
      [
        "TÃ¼rk",
        "iye"
      ],
      [
        "ĠaÄŁ",
        "Ä±r"
      ],
      [
        "ĠbaÅŁ",
        "ladÄ±"
      ],
      [
        "iler",
        "ini"
      ],
      [
        "i",
        "j"
      ],
      [
        "malar",
        "Ä±"
      ],
      [
        "Ġber",
        "aber"
      ],
      [
        "ut",
        "bol"
      ],
      [
        "Ġol",
        "uyor"
      ],
      [
        "Ġbiz",
        "im"
      ],
      [
        "Ġk",
        "esin"
      ],
      [
        "ĠS",
        "aÄŁ"
      ],
      [
        "t",
        "im"
      ],
      [
        "ey",
        "im"
      ],
      [
        "es",
        "el"
      ],
      [
        "A",
        "r"
      ],
      [
        "ĠÃ¶zel",
        "likle"
      ],
      [
        "if",
        "t"
      ],
      [
        "Ä±nÄ±z",
        "Ä±"
      ],
      [
        "Ġk",
        "ir"
      ],
      [
        "am",
        "Ä±"
      ],
      [
        "Ġb",
        "unun"
      ],
      [
        "Ġes",
        "ki"
      ],
      [
        "Ġs",
        "in"
      ],
      [
        "Ġs",
        "ey"
      ],
      [
        "Ġp",
        "r"
      ],
      [
        "ĠiliÅŁ",
        "k"
      ],
      [
        "Ġtek",
        "rar"
      ],
      [
        "ĠK",
        "o"
      ],
      [
        "Ġsor",
        "u"
      ],
      [
        "ĠÅŁ",
        "eh"
      ],
      [
        "A",
        "Åŀ"
      ],
      [
        "de",
        "m"
      ],
      [
        "p",
        "an"
      ],
      [
        "Ġo",
        "f"
      ],
      [
        "ĠEÄŁ",
        "itim"
      ],
      [
        "adÄ±ÄŁ",
        "Ä±nÄ±"
      ],
      [
        "eler",
        "de"
      ],
      [
        "et",
        "ay"
      ],
      [
        "Ġr",
        "enk"
      ],
      [
        "c",
        "an"
      ],
      [
        "et",
        "men"
      ],
      [
        "ĠdeÄŁil",
        "dir"
      ],
      [
        "larÄ±",
        "yla"
      ],
      [
        "Ġs",
        "ak"
      ],
      [
        "Ġsal",
        "dÄ±r"
      ],
      [
        "ĠyardÄ±m",
        "cÄ±"
      ],
      [
        "A",
        "l"
      ],
      [
        "Ġyeni",
        "den"
      ],
      [
        "d",
        "um"
      ],
      [
        "imiz",
        "i"
      ],
      [
        "Ġk",
        "ut"
      ],
      [
        "Ġihtiy",
        "aÃ§"
      ],
      [
        "Ġc",
        "ih"
      ],
      [
        "b",
        "u"
      ],
      [
        "Ġuz",
        "ak"
      ],
      [
        "Ġsay",
        "f"
      ],
      [
        "Ġv",
        "ak"
      ],
      [
        "Ġgen",
        "iÅŁ"
      ],
      [
        "l",
        "o"
      ],
      [
        "al",
        "Ä±m"
      ],
      [
        ".",
        "|"
      ],
      [
        "Ã¼",
        "ler"
      ],
      [
        "uk",
        "uk"
      ],
      [
        "ĠAn",
        "kara"
      ],
      [
        "ĠK",
        "ad"
      ],
      [
        "ĠÃ§",
        "aÄŁ"
      ],
      [
        "Ġr",
        "aÄŁ"
      ],
      [
        "Ġ201",
        "7"
      ],
      [
        "l",
        "ilik"
      ],
      [
        "Ġsav",
        "aÅŁ"
      ],
      [
        "v",
        "e"
      ],
      [
        "en",
        "c"
      ],
      [
        "Ġs",
        "il"
      ],
      [
        "ay",
        "fa"
      ],
      [
        "Ġ",
        "."
      ],
      [
        "k",
        "er"
      ],
      [
        "is",
        "an"
      ],
      [
        "Ġid",
        "di"
      ],
      [
        "ĠO",
        "y"
      ],
      [
        "ĠB",
        "Ã¶l"
      ],
      [
        "es",
        "inden"
      ],
      [
        "ir",
        "an"
      ],
      [
        "af",
        "a"
      ],
      [
        "Ġkit",
        "ap"
      ],
      [
        "Ġn",
        "er"
      ],
      [
        "ĠÃľniversit",
        "esi"
      ],
      [
        "as",
        "in"
      ],
      [
        "Ġbir",
        "az"
      ],
      [
        "Ġsat",
        "Ä±n"
      ],
      [
        "acaÄŁ",
        "Ä±z"
      ],
      [
        "ĠsÃ¼r",
        "dÃ¼r"
      ],
      [
        "Ġolm",
        "ayan"
      ],
      [
        "ĠÅŁ",
        "art"
      ],
      [
        "Ġgerek",
        "li"
      ],
      [
        "Ġw",
        "eb"
      ],
      [
        "Ġb",
        "ank"
      ],
      [
        "b",
        "ah"
      ],
      [
        "ĠM",
        "art"
      ],
      [
        "m",
        "eden"
      ],
      [
        "n",
        "i"
      ],
      [
        "b",
        "e"
      ],
      [
        "Ġ",
        "erk"
      ],
      [
        "ĠEr",
        "doÄŁan"
      ],
      [
        "Ä±r",
        "ken"
      ],
      [
        "ĠÃ§alÄ±ÅŁ",
        "ma"
      ],
      [
        "iler",
        "ine"
      ],
      [
        "Ġk",
        "Ä±y"
      ],
      [
        "Ġmev",
        "cut"
      ],
      [
        "ĠH",
        "as"
      ],
      [
        "w",
        "w"
      ],
      [
        "1",
        "5"
      ],
      [
        "c",
        "ort"
      ],
      [
        "lat",
        "form"
      ],
      [
        "iyet",
        "i"
      ],
      [
        "Ġs",
        "ayÄ±"
      ],
      [
        "Ġsay",
        "esinde"
      ],
      [
        "ĠA",
        "ma"
      ],
      [
        "imiz",
        "e"
      ],
      [
        "ĠbaÄŁ",
        "lan"
      ],
      [
        "uy",
        "u"
      ],
      [
        "Ġar",
        "ac"
      ],
      [
        "s",
        "man"
      ],
      [
        "ĠÃ§eÅŁit",
        "li"
      ],
[...]
